/**
  ******************************************************************************
  * @file    network_data_params.c
  * @author  AST Embedded Analytics Research Platform
  * @date    Wed Jan  8 16:24:09 2025
  * @brief   AI Tool Automatic Code Generator for Embedded NN computing
  ******************************************************************************
  * Copyright (c) 2025 STMicroelectronics.
  * All rights reserved.
  *
  * This software is licensed under terms that can be found in the LICENSE file
  * in the root directory of this software component.
  * If no LICENSE file comes with this software, it is provided AS-IS.
  ******************************************************************************
  */

#include "network_data_params.h"


/**  Activations Section  ****************************************************/
ai_handle g_network_activations_table[1 + 2] = {
  AI_HANDLE_PTR(AI_MAGIC_MARKER),
  AI_HANDLE_PTR(NULL),
  AI_HANDLE_PTR(AI_MAGIC_MARKER),
};




/**  Weights Section  ********************************************************/
AI_ALIGNED(32)
const ai_u64 s_network_weights_array_u64[4866] = {
  0x3c8fb5c0bd80cce0U, 0xbe0a89913d32fda4U, 0x3d0e0f7cbd6fbdccU, 0xbc02e8f0be2a3bacU,
  0xbb2acb403d446054U, 0xbd9224bcbc5caad0U, 0xbe2bd6623dd21512U, 0xbe2b1dc0bd52bba8U,
  0x3da81386be400d7cU, 0x3e149749bdb401acU, 0x3cf30a653d9a73c8U, 0xbdd155a6bdc77d40U,
  0xbdff2debbdb8c6bbU, 0x3e1a9f523e230b13U, 0x3e1a6719bd660b3fU, 0x3bd32ae43d93a1e3U,
  0x3dacbf343e7590aeU, 0x3e037c5fbe07ff2bU, 0xbe1b18afbe56a351U, 0x3d2abad73def6d80U,
  0x3e1b8fdbbdf14f5bU, 0xbd9f25be3badda42U, 0x3e897f103e1e89c2U, 0x3d72ddc83d792235U,
  0x3e21f4a63b69b9a0U, 0x3ea05f933eb0d7e4U, 0x3e3669a23d135853U, 0x3e56f13038daefcbU,
  0x3c82cf1a3ba4b58cU, 0xbce71dc53ee8b679U, 0xbde2a18f3e7b369fU, 0xbd8c7ab2bd7cc6e6U,
  0xbe2316f1bdd3e425U, 0xbdc12cd13e463c97U, 0x3e242e0dbdadfe0bU, 0xbe46822cbd9dbd2eU,
  0xbe110c25bdf82bd7U, 0xbd3e775abd72d0c5U, 0xbe1e5ec83db90f67U, 0x3e0acdf63db766a3U,
  0x3c9d4a41bd414b11U, 0xbc766022be371fb8U, 0xbe24b8193e30c544U, 0x3da67610be56e557U,
  0x3d702c15bc9e959fU, 0x3e18345a3d66453fU, 0xbec795d03e4733feU, 0x3d7406f53edde04aU,
  0xbf1333fb3d90f303U, 0x3d07791cbddcd0bcU, 0xbd865748be21823cU, 0xbd59db6c3d80a1e6U,
  0xbe12e5623d15e598U, 0xbd03a978be073592U, 0x3e3a14febda08a08U, 0x3c620f623d331dd1U,
  0x3da60c25be482064U, 0xbde9cbe8bc91f0aaU, 0xbd98f65ebd85cf8bU, 0xbc992c80be05e815U,
  0xbdb1866c3cd8d7f0U, 0x3e4f6f25be10c938U, 0x3e0bf9ebbe17433bU, 0x3c1728503e132272U,
  0x3cc39f783ea1919aU, 0x3e22a6cfbdce0676U, 0x3e20f3c8be93be29U, 0x3d1e3496be89a45eU,
  0xbdfcc0f43e0dfdeaU, 0x3e9712bd3dbf6653U, 0xbdaee2b2bde45366U, 0x3e9cd9c3bd21ae2bU,
  0x3e092e57be2b3235U, 0xbd37bc7cbdeb77f3U, 0xbd91c3143d29cf5cU, 0xbd77a42cbe55183cU,
  0x3e9eb34f3d824eaeU, 0xbe5e9cc63d80f0a1U, 0x3e5b83ebbe9d9b3cU, 0x3e458383be827961U,
  0x3eb19e2ebeec35afU, 0x3c2dd1c03d4fdee4U, 0x3d0068903e320a7dU, 0xbe379086be53d4dbU,
  0xbe203368bcbf9540U, 0xbdd565943d342dc4U, 0xbde00a28bcef5501U, 0x3e4e678a3d6a6449U,
  0x3db6c2923d9836eeU, 0xbe34142cbe21d4d9U, 0x3e27dc19be545f0eU, 0x3d90a376bde92581U,
  0x3c93d9d0be352d46U, 0xbd5be7743c18fbf0U, 0x3d968f89bcf42a60U, 0xbea201753d4357a4U,
  0xbe50350c3de5bf74U, 0xbdccf7b73f2f8ebfU, 0xbeeea2c63e0748d7U, 0x3de7d665bd204835U,
  0xbec98c5e3ec086a1U, 0xbe4b3966bdb9dbceU, 0x3ec24b03bddbc4ccU, 0x3d464023bea891c1U,
  0x3e233df4bdd2c279U, 0x3d86da10bcecfe8cU, 0x3da0ef36bd6fe7bfU, 0x3e7f3988bdae0671U,
  0xbe16c229be15b72aU, 0xbddce6e53c7234f0U, 0x3e490bd3be2fb13eU, 0xbe31419cbdc7d3c2U,
  0x3d3e3c37bcf23a00U, 0x3d9951ec3d0c8ff9U, 0x3e6d62f13e8a79eeU, 0xbd60e9f2bc2cc470U,
  0xbe85c6853ea8f03eU, 0xbdaeacdcbe391292U, 0x3e0d49a1bcb2474aU, 0x3d3b12fa3e98931cU,
  0x3e24488fbd72ccb9U, 0xbe48e814be30457aU, 0x3d65f1543c848a38U, 0xbe4ab95cbe4e8763U,
  0x3de8e8fabe347a48U, 0x3d1889ccbe2136bdU, 0x3e839b12bd89dd03U, 0x3e7f8d373deb6df5U,
  0xbd55d402bd84cb07U, 0x3df4e1e13d2532e0U, 0xbc208906bde3b2faU, 0x3b928c5e3df65ea7U,
  0xbd46d981be0d908dU, 0xbe483fd7bd0c216aU, 0xbe2ba1d73e01086aU, 0xbe2be934bd6bd6e0U,
  0xbe54341d3d8c6576U, 0xbe0a0fccbdb79510U, 0xbe0e73743e15e8e1U, 0xbcb441ba3d796e6cU,
  0xbe1049a53e18b253U, 0xbda51e2abd8761aaU, 0x3b0fdabb3e2598a7U, 0xbd6b0f20bdd49c94U,
  0x3d861abcbcc3210dU, 0xbe39d62dbd29ae81U, 0x3d67b98bbd54a14cU, 0x3db45978bdf78d6aU,
  0xbdd18dd5bd830885U, 0x3cbcf0e0bddb58e2U, 0xbdbd6965be50757bU, 0xbdaf80f03cf73e00U,
  0xbe25b090be044280U, 0x3e6e078eba940a0fU, 0xbeb47d29bebf1c9fU, 0xbd226faf3f0b4571U,
  0xbf1ddbb73e5b07d2U, 0x3e5374043e2cd863U, 0x3cff40463e753e5dU, 0x3e70ed113e7f9a2eU,
  0x3e691c373dba3cf8U, 0xbbc213b03de863d0U, 0xbe9f0a8abe3b91f4U, 0xbe9527463e02a401U,
  0x3e291e4fbd5cccfdU, 0x3e7ce7dfbed5eb9cU, 0xbdd1e0063e515577U, 0x3e0b07d9bdfa5625U,
  0xbe146210bc960848U, 0xbe2391653da0f322U, 0xbca18748bdafa1c5U, 0x3e513f1e3e640116U,
  0x3c942f0e3d293dfbU, 0xbdbe943a3e129059U, 0x3daeb67e3eaf2747U, 0x3d8f1bf6bc7d5a58U,
  0x3e9c2e6d3d55ed1dU, 0x3dd8277ebe0be6e1U, 0xbe4e496abd80c531U, 0xbdcc69fd3e1ac226U,
  0x3e956e1c3e44a0adU, 0x3e694a533d8d7249U, 0xbd0d7fad3eb7a49cU, 0xbd9336403e8c00ddU,
  0x3dc21efebe04c0b9U, 0xbc6b5560bca86620U, 0xbc6b72b03d8d51e2U, 0xbe478f24be544a4cU,
  0x3d7f9ebcbe40f886U, 0xbe106bbabe048eb7U, 0xbe1b4eb8bd93acceU, 0xbe4c27b83bf48680U,
  0xbdcaaa913da746ceU, 0xbdd1ba403dfe6e82U, 0x3da05132bd2cfe44U, 0xbdc01b453d11a768U,
  0xbcd09858bd072e8cU, 0xbcc0a188bdf74effU, 0xbdf19907be18fb88U, 0xbdec1aabbcc43b5bU,
  0x3e74a2283e43591dU, 0x3c25fda13cc155ccU, 0x3d89bfa93cb31a22U, 0xbe716f323d1d06dcU,
  0x3e5ca34c3c813237U, 0xbe6ae9ae3e0efdb1U, 0xbe9852b43e0a4b76U, 0xbdfa928d3d5cd588U,
  0xbe5500bfbdd79555U, 0x3e1772fbbd987458U, 0x3e87599fbdbe9881U, 0x3df5eb9a3e39b128U,
  0xbdba2aebbe11d08aU, 0xbe097f7abe52c651U, 0xbdc545b2be29ea8dU, 0x3e3948ebbe2e5b97U,
  0x3e0e2e33bdf1757bU, 0x3d377e6cbe4fbcb5U, 0xbe4a491fbdca5c74U, 0xbe2160333e2d040dU,
  0xbe48d592bd6ed3a0U, 0xbdc1ca6dbda724cdU, 0x3c70ba9cbe2defaaU, 0xbe37d212bdf4aad8U,
  0x3e1f78883e2010f1U, 0x3e2fece63d129316U, 0xbeee188e3d97029fU, 0x3e2d03953f538bc0U,
  0xbf6c7f81be6d13dbU, 0xbe9f3116bd056fdeU, 0x3dced65cbe61875dU, 0x3e69b276be2b6e35U,
  0xbe3fa6db3d50d7e0U, 0xbde0b8333de925d8U, 0x3dcb05883daac5e8U, 0xbe62cfdfbe4cde16U,
  0x3e4830babe2846f3U, 0xbe1276313e3447b7U, 0x3d1ac31b3e89e24eU, 0x3def51a73d7e382dU,
  0xbddcdaa23e2103fbU, 0x3e5bde273e3f8b7fU, 0xbd689648bd5a3ddeU, 0xbbbf4ed03d7a670bU,
  0xbdcd35103db5586dU, 0xbc7478cc3e47c199U, 0x3e6ccb06bdee8d93U, 0x3dfd54bebc2e077cU,
  0xbe0336de3db22878U, 0x3e03d1573e6cf408U, 0x3e4720423e28d827U, 0x3bec29163e50fbebU,
  0xbe0d2e28bd3a0175U, 0xbe3e7db33e244c29U, 0x3d15897c3c06cf4aU, 0xbe9ed67abe29c9ffU,
  0xbbf66f8f3e8af4c6U, 0xbdc629963da16e04U, 0x3e860f333e315d44U, 0x3dcedf323d191650U,
  0x3e1b3d83be057ac9U, 0xbea39ee1bee2eeddU, 0xbcf0025e3d8bcb47U, 0xbd8e8591bd39427bU,
  0x3ec8f2d6be3e1995U, 0x3c1de6e03e51d56eU, 0x3e32a3fdbd9c4a39U, 0x3e0e3bd2bda7897cU,
  0x3d3c5e0dbd82a8eeU, 0xbe23ebb3be3168eaU, 0x3db3ff65bd76b1d6U, 0x3e6e352b3e0729adU,
  0xbd4e3405bdc23011U, 0xbd93c7053e9448beU, 0xbd744190bb4a4479U, 0x3ecc14073e12ad61U,
  0xbd86aeee3d2e0880U, 0xbe1240ec3d0337ddU, 0xbe206512bd061a85U, 0x3c656ccf3e28bb11U,
  0x3d8119093c92084aU, 0xbed4b28a3df54a1dU, 0xbc5b6eafbdce201dU, 0x3cd95c493eada5b4U,
  0xbe3e550fbde573daU, 0x3e3e57fabe7afb67U, 0x3d84a9623e82c3d5U, 0x3d831bb8bc8b5b35U,
  0x3dd72c023e0f8b65U, 0x3da88643bcf4ed21U, 0x3e5d23fcbd7e085dU, 0x3d1969923eb11702U,
  0xbe90a63dbdce991aU, 0xbd01ea2b3d735939U, 0xbf107d323d9e6465U, 0xbebb5a8b3e8d94f8U,
  0xbecd83ca3f390ee0U, 0xbe25c2883d8b6a1cU, 0xbcdd9d663df8f2e5U, 0x3e17ae9cbd9df221U,
  0xbb33dc76be306624U, 0xbdcf9fd93e792798U, 0xbd345e583d0fb5f5U, 0xbe199a72bcfeab75U,
  0x3dd2c4423c6a7eb2U, 0x3e5644423e87b5c3U, 0xbeb28937be630f01U, 0x3d9f142dbeb73d11U,
  0x3e8d3567bd13c889U, 0x3ee0010cbd76d1faU, 0xbe07baccbd6a3354U, 0xbe4853a83e42fb3dU,
  0x3e084cb0be297a74U, 0xbdbe6dc7be04abd5U, 0x3da82e40bcb9e7cfU, 0x3e14e1e73e3cfcf3U,
  0xbc42fcd3be2381f8U, 0x3e2899e1be1dd987U, 0x3e69a7793d801b93U, 0xbdc1ef773e0d7359U,
  0x3e9a43d03e240e2fU, 0xbcc6c2d5bd2add45U, 0xbe17de823da01412U, 0xbe7400e13e91718cU,
  0xbd32e2f8ba32f100U, 0xbd11c4b4be4876faU, 0x3d560f243ca16620U, 0xbe37f8893dcb605eU,
  0x3e438af4bbd9b220U, 0x3e4facf3bd91bd6aU, 0x3d7690f13eaaf88bU, 0x3dcc69063e5fbfebU,
  0xbd3fc74b3e889e2eU, 0x3dbea4fc3d07d889U, 0xbda14074bd7101f9U, 0x3e0ad7bf3d2663c6U,
  0xbe3e0a1cbe4f9785U, 0x3def4c1f3dd88669U, 0x3e55902b3dbc236eU, 0x3e56ad69bd949607U,
  0x3df3b47c3ca4fc37U, 0xbd20a7e73ebae272U, 0xbe02f8d73db354caU, 0x3e6c9edabf4461f4U,
  0x3f1726ac3e09dd0eU, 0x3dc83f2cbd0a0febU, 0xbbe9a73ebe1ce8d8U, 0x3dd2ce843e908186U,
  0x3d3a2a933ea4be8dU, 0x3e7f95583e6d4b3aU, 0x3e2ca6a9be1e989cU, 0x3e0c8d9fbe124b5cU,
  0x3e3c2fec3ead90c3U, 0xbecf1cc0bc52494fU, 0xbd825d3f3db9235aU, 0xba9fe419bdaf5e60U,
  0xbd53f0063e04c495U, 0xbe27c71c3db04b56U, 0xbd33e2903d527277U, 0xbc9dfed33db1a9aaU,
  0xbe290ddabd54b6ecU, 0xbdac2875bd38f824U, 0xbe15c78ebe29fe47U, 0x3e12b67dbe083518U,
  0x3e28530f3e26518eU, 0xbdaf0c1dbe505aa8U, 0xbe095ebcbb414080U, 0xbd443504bdf7eb38U,
  0xbc6f2c60bdf0c1beU, 0xbe7e51463e0faf7eU, 0x3d7af280bd16c0c1U, 0x3da2547c3cc21db2U,
  0xbd61bab2bdcde15eU, 0x3c911b193d2b00cdU, 0x3e999af33e09e16dU, 0xbdff0e59bd1c62d2U,
  0x3e6ed9063e157207U, 0x3e29e7473d54e4feU, 0x3c8e0ee83e40868dU, 0xbdaaca283a178400U,
  0x3dc7e142be4694abU, 0xbe4dc3b4bd46a118U, 0xbba21ec6be4270abU, 0x3dd66827bd308cacU,
  0xbe243ef23e7c68b3U, 0x3e846cfb3ea87a27U, 0x3e397e843e40cf9dU, 0x3d95a1e13d779cbeU,
  0x3e8e3931bcdd90a7U, 0x3e3613e13ced9becU, 0x3d96b7bf3e77a926U, 0xbdedf146bdf45144U,
  0x3d9403cf3ccac920U, 0xbe6ade053e3871f7U, 0x3dfb11e73e0279e5U, 0xbe1c4f9bbd84ad10U,
  0x3ccb5765bd066eb7U, 0x3e9a7275bea436b7U, 0xbe288d53be24b17bU, 0x3e21c258be68ac76U,
  0x3c6b0bdb3ead660dU, 0x3e72f3153e5555caU, 0xbd4aecd43e2e1fb7U, 0xbdba434bbe0722b3U,
  0x3e278700bdb36cadU, 0x3e776eb9be1c41f6U, 0x3e5be14ebe538accU, 0xbc83dc9d3e231e49U,
  0x3e71b9cb3d5eaddeU, 0xbd83ac62be3ea39bU, 0x3e67c0f33d014958U, 0x3d4c44213ce3b7bfU,
  0x3e29a5703e337378U, 0x3dcec47a3dbb818cU, 0xbe98896dbd533900U, 0xbe5668283e3e25b4U,
  0x3e9cc1aebefcd766U, 0x3f0aa3bc3b933afcU, 0xbe38e87ebe9a7cebU, 0x3e0d3197bd440d18U,
  0xbe457b643e225a3fU, 0xbe427f4e3e0e069fU, 0xbe3f1917be12f8fcU, 0x3e55622dbda944e3U,
  0xbe1a0a883eedcda0U, 0x3ea17307bd3df48eU, 0x3e8a91d6be05c750U, 0xbde17873bf3bb21dU,
  0xbe0ce170bd85bdb4U, 0xbe191f1fbdfeccadU, 0x3cb3a8b0bd7ef510U, 0xbc4a7500bde9e4feU,
  0x3e51a8633dcec1d4U, 0xbde6004c3d8d8c54U, 0xbe92fdb83d9a4963U, 0x3dc03f79bd95d738U,
  0xbd20c8e8bd99d77eU, 0xbca92d60bdac7ff0U, 0x3bc189a0be5033e0U, 0xbe500a9c3c05cf70U,
  0x3ddc95623c887b08U, 0x3e70874d3e4f61e6U, 0x3e561cc2be0c5efeU, 0xbe3a1749bcbbfa3bU,
  0x3d345e583e75c4e3U, 0xbc1e2f8b3e6f0850U, 0xbd084a293cba04eeU, 0xbe33a5ab3e6a7bceU,
  0xbe00febdbdd390b1U, 0xbe9bc82a3ecbb215U, 0x3e0b00e13d94b088U, 0x3e375414be79c073U,
  0x3d68eb483d974b5fU, 0x3e0dfe6fbe1d6160U, 0x3e385fc73db0c1c0U, 0xbe28f8db3e297d19U,
  0x3e718bb0bdc4c6fdU, 0xbdc71cf73e5b36b6U, 0x3e559b20bdea9071U, 0x3d02333bbde071eeU,
  0x3b95c6f43e0f971fU, 0xbdf1ee69bdb69b5cU, 0x3e41c4db3d8f23caU, 0xbdedee5c3e0677f4U,
  0xbcc95e98bd1d0864U, 0xbe416890be3f94ccU, 0xbe44d5f2bd4f3f1cU, 0x3ddc1f0abd932610U,
  0x3e8b19c1bbcb16f5U, 0xbd0bc967be603b45U, 0xbee6c37f3e8e0fefU, 0xbdaaecb53e193d0eU,
  0xbc739fcdbd846d9cU, 0xbde8b338be16a640U, 0x3e38d263bcd58128U, 0xbe73591f3e089e12U,
  0xbcd3b9b13e8e2a65U, 0x3cb07fa43e083cd0U, 0xbe2edcc93e1abedcU, 0x3b79f74a3e647819U,
  0xbea491ccbd54dc99U, 0x3de73fa53e31f8c3U, 0xbea4db9c3e5b5c51U, 0x3ededf5cbd792b36U,
  0x3eaa640a3d97d11bU, 0x3cb5da8f3e7ccfb0U, 0x3dc6db393d8e64b3U, 0xbd95f217bd981f4eU,
  0xbe45f1e2be8fc7b6U, 0x3eca1b79be2b1a3bU, 0x3e25967f3c8ca00dU, 0xbe382825be05f18aU,
  0xbdaf6ffdbd73b7f8U, 0x3e217ee53cb52050U, 0xbda92d4abe4c571fU, 0x3e491c533dbccc9eU,
  0x3dd32fbfbc9a9217U, 0xbe17a4123e97bbc4U, 0x3ec2f00b3e5f69f3U, 0xbda47421be03a491U,
  0xbdd0cf77be21f0ecU, 0x3e17e0b33d8a8c30U, 0xbe2144cf3e53db17U, 0xbe35aeff3c0a78c1U,
  0xbdc70a33be3d7c09U, 0x3e3ad5cdbdaced2dU, 0xbdf733733e0cfba9U, 0xbe54a92abdeb7562U,
  0xbdcf41043b813800U, 0xbe1411b4bdf5f329U, 0xbde65557bb1bc091U, 0x3aba1d173e21c0f9U,
  0x3ca61eff3d8d8912U, 0x3e6d1b633e693829U, 0xbde7ba943e09a76eU, 0x3dfc4972be7d01ceU,
  0xbd4f281bbd91070dU, 0x3df7de223ded986aU, 0x3de374cfbd097bdbU, 0x3e1c4fbfbe807a84U,
  0xbe0415873da3766eU, 0x3e067d4c3e22f026U, 0x3e4761dabc23abe9U, 0xbdde6ce3bee3a7a5U,
  0xbe36e33cbe1b3380U, 0x3e6346573e5b9ecaU, 0x3e41ab373e3faf71U, 0xbc4f650abcc14b68U,
  0x3de62d7b3e85e9a0U, 0x3e9564cebe73caecU, 0xbe24234d3deb6269U, 0x3e1b68893e248d05U,
  0xbe32e0b3bde06b27U, 0x3b907eb13dbb5847U, 0xbe1df5eabd8dba6dU, 0x3e62538fbe455c9cU,
  0xbc9578503e6f5fb6U, 0x3ec5dd033e574d4bU, 0x3e406d03bda84ffeU, 0xbd1aea733e7049d6U,
  0x3d165c1fbd9f821fU, 0x3d51730c3e0d1ac0U, 0x3db0a7323cc3ba2cU, 0x3cd455dfbc896a73U,
  0xbc491def3e0c20cfU, 0x3e58ff273daf02a5U, 0xbe988241be82c6a3U, 0xbe11308d3dde3c10U,
  0x3e661057bd103b8dU, 0xbdccabc9bd6800c0U, 0xbe2c845ebd9c2be6U, 0x3d61e34cbd9572e0U,
  0xbe27e9c4bd84cdb8U, 0xbe1960003dd6bc42U, 0x3db401bcbc7cf9f4U, 0x3ed5ced2bf06b1fbU,
  0xbee7c782beccef3dU, 0x3e85aab53e974a66U, 0x3dc989533e3a2c16U, 0x3e92d717bc998770U,
  0x3e401acc3ebc5fa1U, 0xbe81fc413eaab426U, 0x3c98b5c63dd601afU, 0x3d9b119b3c08306fU,
  0x3dcd824a3d9018b5U, 0xbc74204d3d1b284eU, 0x3cfdaf96be9d8baeU, 0xbe1c92173dd0f9ecU,
  0x3e68ff05be1699d3U, 0x3bcb6ba93ebb871bU, 0x3e23cab33e214d4eU, 0x3c847b993d7a80fdU,
  0x3d8cc71e3e4bae52U, 0xbe5927df3ea10450U, 0x3de9fee43e72ea89U, 0xbc32c2853e873a8bU,
  0x0U, 0x3be675dcbc7cd3f1U, 0xbce228bfbd1a1a19U, 0xbda1b46cU,
  0xbd032fc33a89a4fbU, 0x3dd4b360U, 0xbc3747e2U, 0x3daa88f93e17463eU,
  0x3da949b400000000U, 0xb9957b2700000000U, 0xbca3a61500000000U, 0x3c7b6fc73e042abcU,
  0xbe63886800000000U, 0x3d1dd477U, 0xbc51788fbdc40142U, 0x3c4b0b2c00000000U,
  0xba0d533fU, 0xbe94362b3e0fe5d8U, 0x3eac89daU, 0x3e52367abe98c983U,
  0xbe9633c2U, 0x0U, 0x3cd6575e3ec357d0U, 0x3e607d2bU,
  0x3aacff8e00000000U, 0x3e93538e3e89cef9U, 0xbdb30ee0bc1561eaU, 0xbeb2cf143d7d1d4dU,
  0x3c64dc2c3f0e4762U, 0xbc2b40cc3e85b10bU, 0xbd8e0c06bdb32015U, 0x3e932e2dbdd560eaU,
  0x3e58be68be281b8aU, 0x3c6475763e870800U, 0xbae5b8c63e0fe42fU, 0x3e67157cbd90cc9aU,
  0xbe7a56df00000000U, 0x3daeef2b39913482U, 0xbea1f27dbd9bdd3dU, 0x3e13d90dbd283289U,
  0xbac4ca1fU, 0x3dbdcf593e3ccf92U, 0xbd2426bb00000000U, 0x3c85ee61be735392U,
  0xbd8286d53c921116U, 0xbde1f4f7bd9949ddU, 0x3e3145ffU, 0xbdb4b02aU,
  0xbd11df62U, 0xbcb2c0b0bebab552U, 0x3dfab0dfbda03075U, 0x3d047837U,
  0x3e97427e3c945bfeU, 0xbea8ee3f3e4a68a6U, 0x3d8b628aU, 0xbb0fde1bbe9187b4U,
  0xbcd74e9800000000U, 0x3e301f663bf3f23bU, 0xbe263c3dbacb0f2cU, 0xbe76c4d5bd5a6c85U,
  0x3ea64cf53dd7e6d2U, 0x3e8d4ca000000000U, 0x3d0715ddbea07703U, 0xbe595b6bbdc3af82U,
  0xbd9a1057ba9c9d00U, 0xbd6478663e22611aU, 0x3dcaae123b66c948U, 0x3e05d4d7bd7d9df0U,
  0x3de82e32bd1a4bb7U, 0x3cd104a0be7507f1U, 0xbd11dfdcbcf4e551U, 0xbd56c9823df294ceU,
  0xbe878cd7bd34cf08U, 0xbdf6c01bbacf9a00U, 0xbe7d083cbdf32e68U, 0x3dd5a5c9be71a85bU,
  0x3e0491503d927da6U, 0xbdece34abe451935U, 0xbd938d993d7da053U, 0xbdcc23003e22090dU,
  0xbdb0db953ba51342U, 0xbe185410be9f3b8aU, 0x3e296391be8e94fbU, 0x3dec2889bdb479a2U,
  0x3d1b280cbcd98adbU, 0xbdb473a9bdc6aba6U, 0xbe3fdccb3da15a1cU, 0xbcbcd4783ded5722U,
  0xbd4137143db5a4e2U, 0x3a7b657ebea3edafU, 0xbd69b4c1be2f7251U, 0x3e23116abddc8e21U,
  0x3cff7377bdc04067U, 0x3d8ea7383cd6d31bU, 0xbe329edc3e153de5U, 0xbd918997be121f1aU,
  0xbe9b096fbcd7100bU, 0x3df3108f3e211d5fU, 0x3d193ce6be081963U, 0x3dfe1fda3dfdcb47U,
  0xbd085698bde57bbcU, 0xbc4ff339be020121U, 0x3d525242bdecfa61U, 0xbdf86192be164253U,
  0xbb63fe00bce5c1ecU, 0x3dc25aedbe2d9fbeU, 0xbd0704c0bcd9e9c8U, 0xbe60eb1abb079b66U,
  0x3d97c61cbe8fe7b5U, 0x3bb38f92bd376c44U, 0xbae76380be8aee14U, 0x3d0698c8be38ee73U,
  0xbe0fb5c53b560daaU, 0x3c33fa4f3d6d88eaU, 0x3c9f38f83dc74ca6U, 0x3ddfbc4a3db9f47aU,
  0x3dd449c1bb15a6f5U, 0x3dc3a6c5bc022deaU, 0xbd8721a1be7bff73U, 0x3d33b0edbe127b65U,
  0x3d8fb86b3dbc4e36U, 0x3e11c2963ca5f22aU, 0x3c168027be50217dU, 0x3d0d8ea33ccc3397U,
  0xbd360dbdbdeaa6d9U, 0xbdb9a0b13e2d9c75U, 0x3e2786e83e66daa5U, 0x3db0756e3d40f0acU,
  0x3e094181be2b0be5U, 0xbd43ec2e3dec3a24U, 0x3e33dfa9bbd3dc22U, 0xbddf74d43db21e88U,
  0xbce3d205be2dfd66U, 0x3d1b17583e31d262U, 0x3de0e33ebe1d9b81U, 0xbd202cad3d65a46cU,
  0x3e069626bc809960U, 0x3d97bc96be0fb32aU, 0xbd62a92abde13517U, 0xbd178b153dcf1874U,
  0xbd076815bde92402U, 0x3dff0326bd581970U, 0x3dfce9603de9e72fU, 0xbdce53bd3d2cffd4U,
  0xbe2ffddc3e3260b4U, 0x3da0e960bd17c190U, 0x3e30b9b73e26a72aU, 0x3e2db54c3cd24f41U,
  0x3c8267c0bde35f74U, 0xbe13dc22bd87dfeeU, 0x3bd90f613e1b34bfU, 0xbb0589c03e20a2a3U,
  0xbde4ed9f3dc8535eU, 0x3dc551243e746c4eU, 0x3e153756be45f878U, 0xbe64aa503c280e17U,
  0x3dd7481e3e29d6e0U, 0x3daaf6e23ae0a393U, 0xbe1e8ffd3d7f9f80U, 0xbccd9f79be229245U,
  0xbdcbddeabe0812aaU, 0x3df335c4bd187714U, 0xbe0630013d1be60dU, 0x3e0b30413dcccbf1U,
  0x3d9cb4bdbe2d7c40U, 0x3e241464bde25ceeU, 0xbd055798be88cc9aU, 0x3e001338be0d2500U,
  0x3d996aa2bc97f67eU, 0x3dc12059bd56a19eU, 0xbdc1c030bd2a699cU, 0xbcc16843bda525efU,
  0xbd28cbf3bd9937feU, 0x3e02d6483d88fb9bU, 0xbd81a1b73dea9535U, 0xbd12375cbbe23bdbU,
  0x3e10fe473c2f7b02U, 0x3d58be39bce4d454U, 0xbdf39f493c3a303bU, 0xbbb328c03e1ef5b5U,
  0x3dd7d6413d9e53a2U, 0xbcfc560d3e2504f3U, 0x3d81a584bde73134U, 0x3d5a74abbd771010U,
  0x3e1cf0763c140aa0U, 0x3e28a627bd666bd9U, 0x3cde8289be0289e1U, 0x3dd752f83c980cddU,
  0x3c329cf43ccf2657U, 0xbd2d39233d0ac520U, 0x3dd622e1be567fb7U, 0x3a1ca8fdbd31529fU,
  0xbdf3a090be15eb7eU, 0xbd40d1b1bd136bccU, 0xbdb77003be01a4d6U, 0xbc1908e03dade0a6U,
  0xbd45b2983dcc34c6U, 0xbda2aa013d6ced74U, 0x3d9d78a63e18b145U, 0x3d895bd03ce36c0fU,
  0xbc9cc4a0bd446354U, 0x3c9b18f0bdd54c1cU, 0xbd44d7dc3df6a382U, 0x3e02a2693db3774bU,
  0x3e1f75113bec8e60U, 0x3e301fcd3db0fb88U, 0x3e0e3b1dbdc77d58U, 0xbd0514743e13a0a5U,
  0xbe0fad0e3dd888d2U, 0x3c3977e73e261463U, 0x3df1e9663dd33584U, 0x3e327db1bd329c18U,
  0x3e01dff1bd088744U, 0x3e310775bdc5e428U, 0xbdbde9b5be023fc6U, 0xbd98c000be1796e8U,
  0xbd0827243e1cb41fU, 0x3d37bc84bdd05935U, 0xbe3041443da1b136U, 0xbd34dd063d080bc7U,
  0x3cd9b9d43d9ee9dcU, 0xbdabb91d3e332eedU, 0x3e24a5e73da4f4a1U, 0x3da459473da264d6U,
  0x3daba0d63e2a4929U, 0xbd5f61d6bcf1debcU, 0xbd5cb8323d0c7df0U, 0xbd0d38dd3c7b476dU,
  0xbe28cf24bdec0344U, 0xbe1ef9d73e0b5e17U, 0xbd3a5046be1b5d33U, 0xbde96010baf5bf80U,
  0x3e1432f73a4e375eU, 0xbc05fbd9bdb0285cU, 0x3d1af4dc3d3a34c4U, 0x3d8628763c4cda10U,
  0xbd22638bbdcfc069U, 0xbe1530a43a87e2b5U, 0x3d7245e03e2d96faU, 0xbcfddf983ddd95fbU,
  0xbcc1af20bda08122U, 0xbe32b1fabe04530eU, 0xbc7a570f3cd2a4aeU, 0x3de8fd3abc9445d3U,
  0x3cd7edf9bd129818U, 0xbe036285bcb3a522U, 0x3c0858903d792e58U, 0xbd86cccd3c9c193eU,
  0xbd0a388abd940f93U, 0xbe299a15bdc05545U, 0xbd851dd7be22da22U, 0xbe1b8dbb3e2bddadU,
  0x3db6a2e7bd3d2f43U, 0xbe2a9693bd644ca0U, 0xbd49e9483e31d5b1U, 0x3e0106b03e01cf7bU,
  0xbd74b3eabdfce47cU, 0x3e37eeffbdb7d684U, 0x3d476cd23d2b360aU, 0x3e09ecfdbd593bccU,
  0xbb8e9d633cb6bda9U, 0xbdb9db78bdedb359U, 0xbe05bb943d18288cU, 0x3c5c4b7dbbd5770dU,
  0xbce4fa5e3df2005eU, 0xbdba166f3d241ea8U, 0xbd75a553bd7568faU, 0x3c61bd813d8f2686U,
  0xbde9ab7a399b2400U, 0xbdec545e3d8ae9c2U, 0xbdfec2ccbe0df680U, 0xbd83c384bdc35bceU,
  0xbe094d5c3db1f632U, 0x3e2387c0be1fb7afU, 0xbcc0fe883c7bf1e1U, 0x3d2a5b003de1994cU,
  0xbe25273dbe13e3c7U, 0x3d2430b0bce089f0U, 0xbc85d409bdfe1bb4U, 0xbe0564793e2a1c52U,
  0x3d0555c03e2ff09bU, 0xbc0bd4113e272f01U, 0x3d7fc184be3d28ceU, 0xbcfe1395bdb3d2b4U,
  0x3e20f14e3d3a04e0U, 0xbc86bb1cbd72039fU, 0x3daf3fc53cb84550U, 0x3dd637f7be13863bU,
  0xbd92596b3de731f3U, 0x3e14cfb73e1ba0cfU, 0xbe15e277be381c22U, 0x3e4e02de3dd1e23cU,
  0xbe15f0953e27a3a5U, 0x3e47b0403df42736U, 0xbdcb6e3fbc852ddcU, 0xbd9aa3d5bd8b9386U,
  0x3e3245593c81ad42U, 0x3e3ed4183e3872f5U, 0x3dcc270cbe2b36ebU, 0xbd687681bdba554bU,
  0x3e06ea1fbcf46162U, 0xbcf3293d3d79da28U, 0x3d3bbc54bd8268beU, 0xbe02270fbe20c60fU,
  0xbd3057e8bd294fa9U, 0xbdc35775be0c9161U, 0x3defc84fbc978dadU, 0x3e2ce6f1bde94173U,
  0x3e46e77dbc8a3e5eU, 0x3d1052053c829cd6U, 0xbe1b70f73de87704U, 0xbd0e1232bca446eaU,
  0xbe34096b3dea7202U, 0xbde35fc2be1075e3U, 0xbe1edda0be4766aeU, 0xbe16af8d3d3e8487U,
  0x3d802fbfbe0b2d9cU, 0x3d9ffe9abcfdfbe0U, 0x3e3f2f4d3d6de9e5U, 0x3d50ca53bdfc02b1U,
  0x3dfe162e3d77f298U, 0xbe4054af3e1157deU, 0xbe10798cbd58dfddU, 0x3e098d35be362d27U,
  0xbe18e0a13e1fa75fU, 0xbd68624e3cb72867U, 0x3e0885913e131783U, 0xbe80bd203ea9c96dU,
  0xbd008ddfbd9a3ffbU, 0xbe0f5e863d7a5eacU, 0x3e811c6e3e18ecc7U, 0xbe3eea783e898a5eU,
  0x3e6353b9bd99d7f2U, 0xbe1b5ed53e4398adU, 0xbe140d683c798fedU, 0x3e0c3ee7be125714U,
  0xbddf9d82bd7588b9U, 0xbe1c82fb3e09683bU, 0xbd8f47a43e5efd5dU, 0x3e3d8e08be07a4a1U,
  0xbe029d003d2b6e96U, 0xbdba82f1bcd08628U, 0xbcb670fbbdf36936U, 0x3dc466123cca3f1eU,
  0x3c9f708dbc988970U, 0x3d9d90213ccbce99U, 0x3db538d63e1aeda1U, 0xbdd8e8803d7d2cc4U,
  0xbe36e136be0f420eU, 0x3cd3a5163e1cec6aU, 0x3de087ee3cf5da27U, 0xbe25450f3bcd5310U,
  0x3ed6966b3d638614U, 0x3e10caf9bd1a22a7U, 0x3e15f4653e1a373fU, 0x3e8f03223e0a651cU,
  0x3e2439c4be0deca9U, 0x3e7a37fc3b02f1b6U, 0xbe649c5b3dd38db3U, 0x3df0cf67bd5fef51U,
  0x3e14e6bbbe11ee92U, 0x3d55dc6b3d331d9aU, 0x3e0e67e5be2f11e3U, 0xbc2bec5dbe239500U,
  0xbe147a403d24e642U, 0x3d874a003bcd3862U, 0x3d9275e03e62fc51U, 0xbde7c3623dc55391U,
  0xbdb734233e424dd0U, 0x3e6051833ce189e8U, 0xbe554615bd77355aU, 0x3cbd60c03db7a808U,
  0x3e7d85303e35fc7fU, 0xbe37bac7be3fd94fU, 0xbddeb1833e80c3e5U, 0xbcd3d5583e22d47aU,
  0xbe0ada003e0dc2adU, 0x3e0893a9bda37faaU, 0xbe1b78923c99346cU, 0xbc7feb8e3d98d71dU,
  0x3d86d3593dabd504U, 0x3d03e4813dc17656U, 0xbc1b8a78be9a4eedU, 0x3d708986bdfeaf04U,
  0xbdb7d1073e32fc39U, 0x3decb4ae3d81fb36U, 0xbd9cb73abd8bd10aU, 0xbdcbb7fa3d290c70U,
  0xbe2761313d8d8ea0U, 0x3db5eb2e3e004213U, 0x3db405aebddf98cdU, 0xbcef8bf0be33e69bU,
  0xbca66b303e1d586bU, 0x3da47b023e02f7d7U, 0xbd8f273f3e1f94afU, 0xbd912a65bd3afb30U,
  0xbd6ece603b66f900U, 0xbdf5cdce3bfaab00U, 0x3e304bfdbd51b848U, 0xbb30e280bda6cdf5U,
  0xbde86512bd225808U, 0xbe0f3de2bd102ce4U, 0xbd8cd3163df803c6U, 0x3dbd6026bd13fcf8U,
  0xbaed73003e00fff9U, 0x3d9f6c3ebde10ee8U, 0xbca407303d76a20cU, 0xbda4c0283ddb18f2U,
  0x3da5541a3d282ad4U, 0x3dd5dc463c6f1d00U, 0x3e27d4c1bdd4039eU, 0x3d99e4e6bbe8e800U,
  0xbd8063e4be1d2c36U, 0x3e0483b33dd60796U, 0xbdc082b63e0e67d7U, 0xbd578f74be0e9c2aU,
  0x3e1256c9be234f09U, 0xbbdb46c0bdc39454U, 0xbdad9bb23d83a636U, 0x3d813428bd6392b4U,
  0xbe32777fbe297774U, 0xbe2b9cb33d940db2U, 0xbccf1798bda94682U, 0x3d19813cbd90c700U,
  0xbe243ab43cb406c0U, 0xbd21e0f83da85e82U, 0xbc31f2d03c069240U, 0x3be3e6603dc5f49aU,
  0xbd4dfad0bd7649e2U, 0x3be60280be2b66e2U, 0x3d56b7a8bdbb9eeaU, 0x3dc48b3abdd9e254U,
  0x3cc6e888be31a489U, 0xbe15334a3e01e1b5U, 0x3e3397af3de6fc3eU, 0xbe23f05ebdc16075U,
  0xbd565f2cbc62f940U, 0xbdb723c93b374480U, 0xbd1f9f083d3e0ee8U, 0x3d5635f0bcb38188U,
  0xbe0fbe42be31e56cU, 0xbc7a0390bdfe7a0eU, 0xbd3c3468bd8bed85U, 0xbb3711803dd1627eU,
  0xbe1fc9683dbac80aU, 0x3e1ef7a9bd1aa958U, 0x3d4856a0bd57dae4U, 0xbdda9f48bd2ed840U,
  0xbd9977073db5f302U, 0xbdbc253e3db6d092U, 0xbe33e5d53e0a9379U, 0x3e1d93a33d3ff9a4U,
  0x3e1de0ef3c29d6f0U, 0xbe2f544abc4e09f0U, 0xbdf3170ebe0814f4U, 0xbe1212abbdf9f2aaU,
  0xbe1723f2bd7ec684U, 0xbd71a548be1ad71aU, 0x3db16a6a3e06d7a3U, 0x3e2d04b53da0cb52U,
  0xbda1fd2fbe1a1484U, 0x3cc69818bdad7d4fU, 0xbd0c2160be131b61U, 0x3d5c454c3d9f1492U,
  0xbe2182d23d9a4c6aU, 0xbdd6b977bd9e0a43U, 0x3d827aa43e2b3e83U, 0xbe33df313e2762f3U,
  0x3d34d928ba807d00U, 0xbd9ac4c93d937a3eU, 0xbe260e6ebdd9bb10U, 0x3e1df0393dd0cc0aU,
  0x3d50f540bc5f09d0U, 0x3ce323703d8184f2U, 0xbccec0d03dff742eU, 0xbdf9cb2e3d72f600U,
  0x3e1373893d7f26acU, 0xbdd81ca1bdb9f668U, 0xbdf227b8be1a7fbbU, 0x3ddc05263e282c37U,
  0xbc98c438bd301948U, 0xbe238ba33df1bda2U, 0x3dc8293abdb71063U, 0xbe317c5abdb2ba89U,
  0xbe320423be03d470U, 0x3a50c0003d4b6aa8U, 0x3dc86ade3bd8aa80U, 0xbd33d2c43e1267b9U,
  0x3dccec2e3b9abb60U, 0xbda8218bbd82d63cU, 0x3d807246bd879e37U, 0x3c84d340bd85e763U,
  0x3dea000e3e32bef7U, 0x3e2c69a3bdc4cf7bU, 0xbc9b66f83d9e483eU, 0x3e27a8393d3b9b88U,
  0xbd6b82943e2b12cdU, 0x3e07c745bd7d0246U, 0x3da6b2b63dd6f246U, 0xbd885117bd7ec2c2U,
  0xbe2fafaebde8c26eU, 0x3c5944d03e06f027U, 0xbd91181fbd8c65d7U, 0xbe1f88be3c2917b0U,
  0x3c718ac03d973aa6U, 0xbdfa77343e194229U, 0xbc92a9b0bd687d38U, 0x3db169f63dcc107aU,
  0x3c0fb6703d80f95cU, 0x3d2e39e8bdfb569bU, 0xbd67c0f4be2a2967U, 0xbdc155a73de02df6U,
  0xbdca22d33cb85d18U, 0x3d893a65bdd7e1a4U, 0x3de8d8b2bdb047b5U, 0x3d36f668bd148dffU,
  0xbc8010963cc331e4U, 0xbdc48ee4bc1d8ba7U, 0x3dd388de3d0b3ff9U, 0xbda5e7acbbc0fa5eU,
  0xbd6b76b3bba5d160U, 0xbd193b89bd3169d4U, 0x3d98d9573e0bcc61U, 0x3d8045f03e3bdbceU,
  0x3da3abf23df676aeU, 0x3da48a163e5053cdU, 0xbddd430abd96013fU, 0xbde4e41b3d3016a0U,
  0xbd98d306be03545aU, 0x3e2bfe303dd60584U, 0xbad438803e3aef86U, 0x3d5cf651bdbd43bbU,
  0x3e0774d9bbb04e3fU, 0xbda27aa6bdecd8a9U, 0xbc1b3833bc586a3aU, 0xbe0159ee3d113e63U,
  0x3db100f4bcfb0f98U, 0xbdf9928ebd976d85U, 0xbe1a9675bda52b32U, 0xbd9986e73de2ede8U,
  0xbd2e8adebdd8aa5bU, 0x3e258777bd790385U, 0x3dd5e8d5bdcfa879U, 0xbc1b0a4b3e7a1c7fU,
  0x3de06d62bd81270dU, 0xbe0112abbe0a1d6aU, 0xbdae10af3c8b91eaU, 0x3d2293053dae64b5U,
  0x3c5dc924be34a416U, 0x3e4aceb93e021818U, 0x3d5151d43ea66ac3U, 0x3bb6002c3d7a5a2dU,
  0xbd47d5803dcad905U, 0xbdcd730ebddd8df6U, 0x3dac88993e2a587bU, 0x3d199eed3d8894ceU,
  0x3e2d7c083ccc0b64U, 0xbe20e95f3cd5186eU, 0xbc82a4a83e7e3220U, 0xbd900c0f3e136a5cU,
  0x3b293340bc6db659U, 0x3df24faf3e1636baU, 0x3e08ab3b3d1cd7a1U, 0x3d617fc03b5ed09fU,
  0x3ce12e9cbd7a38b7U, 0x3d811fe5bd916b66U, 0xbe1c0f223e0aefa9U, 0xbe3174b13df12094U,
  0xbce146b5be08fe5dU, 0x3d986e09be4c6ffbU, 0x3e4942863e0dfc47U, 0x3e097dc03d70d023U,
  0xbe3825a3bd73164fU, 0x3e630f133c9ecab0U, 0xbd26aff23bc97523U, 0xbcec08223e30783aU,
  0x3d9352f4be16b920U, 0x3d399a3fbd3c1510U, 0x3daa69ca3dfad1e8U, 0x3e0db24b3dd08764U,
  0xbd424870be2b4c79U, 0xbe187977bca879f2U, 0x3d69d530bd560c94U, 0xbd421fae3d822f44U,
  0xbd3ec3003b96a4e0U, 0x3d57bfed3db8575aU, 0x3cea217fbd742886U, 0x3caff72abd4fc064U,
  0xbd0340a9be2ec280U, 0xbd89bc4d3da62cafU, 0xbe089f94be162859U, 0xbd320f313e289115U,
  0xbb98bb80bd264bc4U, 0xbe182b9abd815a19U, 0xbe287c463dc0b23fU, 0xbdba6516be07f672U,
  0xbd1d4194be2a91e2U, 0xbdcf8165bcbb41c8U, 0x3e23ec143daf682eU, 0xbdfdf9fbbdab3861U,
  0xbde7d336bc8bca98U, 0xbdd92cc2bbc35d23U, 0xbcee2921be22d43dU, 0x3e2095febdee515bU,
  0xbe33d8e2be23b2e8U, 0x3ccb28923be052c1U, 0xbd45cdd0be34c58dU, 0xbbc188653e335657U,
  0x3dd855f03e184053U, 0xbe2ca04ebde09499U, 0x3d246edcbae9557bU, 0x3d939e123e172414U,
  0x3da5e920bb531a00U, 0xbd3629b2bd1de5c4U, 0xbc6778653d7d4159U, 0xbd30b7babaab3c80U,
  0xbd449c4cbd876f70U, 0xbdfbaaf8be0f2948U, 0x3ccc7553bdca9e31U, 0xbdcf3bbebdb44533U,
  0xbcd7faf7bd21e542U, 0xbbd6e127be2f5c75U, 0xbc581ff03d869b0aU, 0xbd8beef53dd13e09U,
  0xbe34a0cbbe1dcfbaU, 0xbd92e7753a16cccfU, 0xbd5fe9e5be12443cU, 0x3d2e9c8cbdf2166eU,
  0x3d54537f3e2ea0c9U, 0x3d8721cc3d65d2b4U, 0x3e0b38adbdf57440U, 0x3d0e4d04bdaddf99U,
  0x3dc2322e3d75f900U, 0x3d9201263daf7cfcU, 0xbe3041e83e1003bcU, 0x3d13d3f5bdb3db0eU,
  0xbe20e78bbd6a1c90U, 0x3e0e68c6be080570U, 0xbd694ebc3dfccc2fU, 0x3de8a5a53d667761U,
  0xbcbf00b0bdc2b800U, 0x3d773544bdfdde79U, 0x3df2c8dabe03f7d1U, 0x3d9620eabd1aced9U,
  0x3dccf7f93d68c3c3U, 0x3dfd13fabc8386ddU, 0xbcbe85803e0b1eefU, 0xbd318a29be0aad37U,
  0x3e3ad4e43bbf3300U, 0x3d723dd83c95d4a8U, 0x3d8826893dd34316U, 0xbdf973b03e5c6969U,
  0x3d66cabebe165f4aU, 0x3df3fc123d55132fU, 0x3d5f6bb0be208000U, 0xbd89b7ddbe0c4761U,
  0xbdc604e73d92ba12U, 0xbdb9a6943d01d3d0U, 0xbcb19290be255ed5U, 0xbdb166f03db9793bU,
  0x3d402e04bc50dffcU, 0x3dd2769e3d26d8b4U, 0x3e2640ea3e42eb01U, 0xbd8901b03dfa5af8U,
  0xbd9892f1bd8d141eU, 0x3e3c8748bce7bf8dU, 0x3e2814f03df9b652U, 0x3de1d8ea3dec45e3U,
  0x3db9a99ebe160d7cU, 0xbdfc5ffcbd3ff936U, 0xbcee4ed2be2a2f13U, 0x3e1816fabdd078f4U,
  0xbd9370703db6bf2dU, 0xbd1c66ccbe37176cU, 0x3e2022763e023cfeU, 0x3dc8be3dbcfd9f79U,
  0x3dbd588b3dc767deU, 0xbe0bee713e31aa14U, 0xbd1f80bf3e9e5653U, 0xbd747d0bbe1488b5U,
  0x3d8ecdc03e2c20bdU, 0xbe23ec5f3e12d43bU, 0x3dacae9cbe068414U, 0x3df3b1adbdc006fcU,
  0xbdf2f3b9bde47cbfU, 0xbd82d29b3e5c7444U, 0xbdbcb7973e5a06bdU, 0x3c925c583dcffc08U,
  0xbd48f40c3cc6f9e6U, 0x3e34533d3d78376aU, 0xbe05938f3d8490d8U, 0xbd7f69da3dc0d074U,
  0xbd6260f9bdf44351U, 0x3e4239843d28be2bU, 0x3d8ad39cbdfc9166U, 0x3cc246d4bdf92231U,
  0x3e206051be0be9d2U, 0xbd645cdcbcd7f485U, 0xbaf91acd3e41ffbbU, 0x3ddd52963e034c6aU,
  0xbe5d60f3be0d070dU, 0x3d9043693da1d076U, 0xbe0246003e24f532U, 0x3e16f74d3c842235U,
  0x3dfa24d2be07a40cU, 0xbe1afd94bd55bc66U, 0x3dd7fbc6be0fce71U, 0xbe27a5bc3ded395fU,
  0x3dbf5b353da39513U, 0xbc8eda683e1f0237U, 0x3d4ace083b8ab8daU, 0xba877f753c2a03eaU,
  0x3dddd09cbdde099eU, 0x3dc4665abe1c4c58U, 0xbe00983a3cab1678U, 0xbda8f1743ddd1c65U,
  0xbd9721013db23c2aU, 0xbe2b8c203e409bddU, 0xbd686fb13cd88a7eU, 0xbddc69a43d8c5912U,
  0xbe027c113c35d472U, 0x3c49b5993e2780adU, 0x3db1d60ebdbcfd14U, 0x3e003f2bbe145e68U,
  0xbd3d8f543de0f035U, 0xbbf6f720be2cf079U, 0xbbb059eb3e37e85dU, 0x3d9e6d623e3f0f4bU,
  0xbe2e6e8e3dbf063eU, 0x3d2ff879be32339fU, 0x3e364a57bd9e6389U, 0x3e19f3153dbf956fU,
  0xb90e6a74bc9ecebfU, 0x3df636f1bdea14f2U, 0x3e0b759abe05e8d8U, 0x3d9120023d14b8f8U,
  0xbd8a66de3c8f28f0U, 0x3d504920bde7230bU, 0xbe10564cbd6d97e6U, 0xbd7220573c796879U,
  0x3e58b36a3d2bf9f8U, 0x3dce305f3d39f334U, 0x3e21dc113e41c59cU, 0xbd2f78833c7b0fa2U,
  0x3b4e9b803e0e20edU, 0x3dc611bf3dacdc19U, 0x3c020375bdde7409U, 0xbdbf54fa3cabe990U,
  0xbdec72c5bdfdd090U, 0xbe1b0f94be0391c6U, 0xbe218c5e3dcac627U, 0xbdaba9fbbdb87e7bU,
  0xbdc733533e21130aU, 0x3d8d08b6be025005U, 0x3b07e1d83d8bc159U, 0x3e1d88f73cf21419U,
  0xbd520461be19d9f0U, 0xbe03d2ecbe03f5feU, 0x3d28e6903ce5cae5U, 0x3d863c1a3e1e1fd7U,
  0xbd48d6debd583ebaU, 0xbd1663cfbd3fe9abU, 0xbd368053bc0ad4dcU, 0x3df6a926bd7ae7ccU,
  0xbd71f8e33da5e216U, 0xbd9d91b23dc164feU, 0x3db4e4ba3dad248aU, 0x3dda9a2e3b981bebU,
  0xbe2204d4bdaaf64fU, 0x3d4284e63e1b6ee5U, 0x3e438104bdd674d6U, 0x3debe0fabccccdb9U,
  0xbc7bbac93d6c84f9U, 0x3a5460003c0e42c4U, 0x3cbd4540bd79e504U, 0xbdcf037f3e1c0a37U,
  0xbdf07444bd6f9638U, 0xbe0aea6d3de589eaU, 0x3d8e07e5bcee7140U, 0x3bdfd0b53cf909bcU,
  0xbded2364be0b9059U, 0xbcee5730bdb0333bU, 0x3d5e68a13d3d62e8U, 0x3dfb2cc5be2b5830U,
  0xbdff70febd6eeac5U, 0xbd39a8213e08fb25U, 0x3e1c63e13dda5b35U, 0xbbabe6603cf8b9c0U,
  0xbdc1d55fbd5da631U, 0x3d94e2d2bbd42880U, 0xbdc605e73e0995c5U, 0xbe1de75a3cb416c8U,
  0x3de5c3fb3de3fac6U, 0x3e2c0f4a3e5efd08U, 0x3da4fa7bbde867eaU, 0x3d8334d3bd6e75f8U,
  0x3d830bac3e2dc67eU, 0x3e26e2cbbd4d10a2U, 0xbe1403133df2bdb7U, 0xbe0d9cc9be4276a2U,
  0xbbcabf1ebe0e5d4fU, 0x3c81f5d43db40538U, 0x3d9c95f13e02aca0U, 0x3e47e410bdd33570U,
  0x3cacfb713ba21560U, 0x3e09fede3ddf9d05U, 0xbe261afbbe74bf56U, 0x3de1ed48be37c859U,
  0xbd3fdcbcbe3333e6U, 0xbdd065aa3d599d24U, 0xbd752b14bdde0818U, 0x3d81ef0cbbae9114U,
  0xbdf0c9c33e11194eU, 0xbd836efd3d41c2afU, 0x3d9a2a7abd7aaf08U, 0xbe345e453d5741ecU,
  0xbe2277673e104a3aU, 0xbe024650bd5c48f4U, 0x3de83e463d93a1bcU, 0x3e286f01bd8302d9U,
  0x3c7905e73d2bab72U, 0xbe381f48bd6f7fe6U, 0xbdb0f230be1f75a2U, 0x3da04d1e3d2231d9U,
  0x3c17a20d3d1c99f4U, 0x3d674747bddcfd7cU, 0xbd2f84663ca25189U, 0xbd73a17b3df55b0cU,
  0x3e0e86923d81c573U, 0xbdb810023b9beea0U, 0x3d15ac9c3de371a6U, 0x3e27d6d73d50e834U,
  0xbd0519183dc30faeU, 0x3d818a19bdc2fffeU, 0x3dc765a0bd159ef1U, 0xbe16e8863db1ad9bU,
  0xbca495efbe10fb6dU, 0x3ddeaadebdbc24a9U, 0xbe2189a6bc96ef56U, 0xbe00047bbe2dd840U,
  0xb89fbddf3deace82U, 0x3df8a4c2bdd77adcU, 0xbe5af98f3d523ca4U, 0x3cd59d09bded7041U,
  0x3d84c48fbcc513d0U, 0xbca787f8be279c32U, 0x3e25e224bd4142c8U, 0xbd89db94bc4bfe80U,
  0x3e205bb9bdd3dff7U, 0xbe18ca90be295aa4U, 0xbe237415be4262beU, 0xbdc0b1033dfe4dc6U,
  0xbd5bdbe4bd15c1aaU, 0x3c35aea03b7ffd40U, 0xbe263966bc652244U, 0xbc8a4060be2da451U,
  0x3e2eff463cc5f1f0U, 0xbb9cc3aabe2af6d9U, 0x3de29289be188aa7U, 0x3d9e72223db887a7U,
  0xbe2c84443d191e20U, 0x3e2c6838bd89984cU, 0xbe2797e93dd4332cU, 0x3d1041bfbe6d3ea6U,
  0xbdfc82643e384a95U, 0x3e047a92bcaffcc4U, 0x3d844a87bd7609fdU, 0xbe086c9cbc8e42d7U,
  0x3ba1e6373c29f200U, 0x3e06a44a3e1b3185U, 0x3e345577bdbfa511U, 0xbe24f8aa3d985ea5U,
  0xbd0f92883e1a3317U, 0x3e2988433dd49329U, 0x3e0ae65abde55b6eU, 0x3c4f1f7d3ddfdcbaU,
  0x3d5e38c1bd31170eU, 0x3d9098113d6a5be1U, 0x3e028e5dbe37096dU, 0xbe2bdbd4be3dc172U,
  0x3dd48d6ebe27f678U, 0xbdb1ebba3e3761c9U, 0x3c4fbbc5bcaf32bdU, 0x3c072c30bd4f173cU,
  0xbe374313bd731ee1U, 0xbb7721193df3f992U, 0x3dc1fef6bd02f211U, 0xbcd8911cbbd36278U,
  0xbcbd187bbe16d914U, 0xbccafd7b3e2e3419U, 0x3db10b3cbe80cc04U, 0x3cc73fedbd920b77U,
  0x3de8d66bbdc132b8U, 0xbd2e5b64bd956b6dU, 0x3e37b225bbf4bba0U, 0x3d7bd1313e1d0773U,
  0xbd61c0fc3de4061aU, 0x3db15760bd2f4e66U, 0x3e3298113e2f734eU, 0xbe1103643dec432fU,
  0x3de0ccac3e2eefc7U, 0xbda94be6be4cdc74U, 0x3dcef2ce3dfa0c3bU, 0x3dd194b73d0659d5U,
  0xbceafeafbda56b30U, 0x3dda40fbbe05cfdaU, 0xbe96c7c8bdae4539U, 0x3dd32bbcbda286f3U,
  0xbe1701573e2f4729U, 0xbdaaf7753d9da602U, 0x3d02ae573dee67d0U, 0x3e16017a3da1d24aU,
  0x3e02d5833df9e38eU, 0x3d2b067abe16663eU, 0xbab62880bd8707f6U, 0xbd4afe75bcaa39acU,
  0x3d90db7cbe01c0faU, 0xbde09077be0c50cbU, 0xbe3edad8be203895U, 0x3e0f6b0dbdeb46d4U,
  0x3d173c073dbf5286U, 0xbe88a0ebbe9f3aa8U, 0xbdd3628fbd1330c9U, 0x3dd123113c5c7c57U,
  0xbe2cbccbbe1bd977U, 0x3e2a7a7ebe803c0dU, 0xbe2519423db0c882U, 0xbe391b413bf74862U,
  0xbea95cc53df8ace5U, 0x3dc8a7263c1264f5U, 0xbe216d75bd834119U, 0x3d91a914bdef8a77U,
  0x3dc8d4a3be1db01bU, 0xbe04c292bd79055eU, 0x3e1052c7be814274U, 0x3d84ec6d3d8e2b61U,
  0xbd71d8d0bd4aeb01U, 0x3e02e5fa3e1404bbU, 0x3d8d1b4abdd7e837U, 0xbe4ae662bdbf808fU,
  0x3e1a0994bc2709a1U, 0xbd55d7573d849bf5U, 0x3c951c00bea81409U, 0x3c6885b0be6cadbfU,
  0x3d2c6098bd8a3359U, 0xbe824e0d3e293bbcU, 0x3e3326b3bd52d4f9U, 0xbd57fdcebdc4b13dU,
  0x3cd806c4be82285dU, 0x3db941e13e262855U, 0x3dd9122ebe835796U, 0xbe1efd21bd4c24d4U,
  0x3e12f59e3d33c90cU, 0x3dc0b07d3d9e6e78U, 0xbe2097293b9219d1U, 0x3d9ed0f33d361185U,
  0x3da497a33daaa25bU, 0xbebf80f1bd1ff708U, 0x3d3ce00f3dee9b4fU, 0x3e17b575be32799eU,
  0x3e089a6d3d5d41c4U, 0xbe1eaf76be1a93b7U, 0x3d84d951be22bf13U, 0x3ca271503d9582d0U,
  0x3c8144673daf8feeU, 0xbd840b6abdb26d30U, 0xbd0bcd60bddf84e0U, 0x3d18655b3e0c49d4U,
  0x3ea6f074bcceb290U, 0xbe2b3acebd128794U, 0x3e9e9dd23c493310U, 0xbd62885c3e209a00U,
  0x3e2f449abceb6718U, 0x3e3180793d76fb07U, 0xbd481d373e219da7U, 0xbd907fecbe1cced6U,
  0x3e0920613e0981d7U, 0xbaeaf9273e2d18beU, 0x3dab39d63d9d66b6U, 0x3e119f543d986db3U,
  0xbd1690ecbd37ec7fU, 0xbdf35b663e11c833U, 0x3c74617e3bfe806bU, 0xbd7768863d174043U,
  0x3d59118f3dccf6baU, 0x3dcf2a4b3d13119bU, 0x3da1bde33df3bfceU, 0x3e219fac3d84e46dU,
  0xbe2efed2bc46ae07U, 0x3d3a8dae3e647be8U, 0x3a6d34a53d1f9aefU, 0xbc11dcd03e1d7b13U,
  0x3d446ffdbdc4574dU, 0x3dbdfaf73d810047U, 0xbd7bf1713e45044fU, 0x3dc930103ddcce4dU,
  0x3d3e2e92bd13c574U, 0x3e1ffb433e2e4281U, 0x3dd086303eac8a7aU, 0x3da79c5d3e2a288eU,
  0xbdca53053d0b9936U, 0xbe65809cbe2f5669U, 0xbcf62bf3be195292U, 0x3dd0ca0c3da7acd2U,
  0xbdde2f553e5ea839U, 0x3d9b1371bd973c7bU, 0x3e058ff53e9ec192U, 0x3dfccbd23ecbd648U,
  0xbd8596ee3e51c220U, 0x3e8298f8bcf5e336U, 0xbd438f6d3e208cbaU, 0x3d5234543c2b2d5bU,
  0xbd2d51083e9687f1U, 0x3e52c540bc502f39U, 0xba138500bd635c08U, 0x3d02a84c3e3e9651U,
  0xbde6c7c23cb64c40U, 0xbd2801603daa856cU, 0x3c88937b3e598cadU, 0x3d456879bd7015b0U,
  0x3d38b3a6bbee6da1U, 0x3db118bb3b4fd080U, 0x3e012b1abe23c36dU, 0xbd89814f3db1ce78U,
  0xbdb4cb58bdd7bb89U, 0x3e3e6fa6be165416U, 0x3d739ab7bd9d306dU, 0x3d85fdfebe086e71U,
  0x3d4e4e343e34385eU, 0xbe15c4da3da989cdU, 0x3bb64700bdcb209cU, 0x3db3f9c33e177563U,
  0xbca00cef3d5e0aa4U, 0x3dbe382b3bf33620U, 0xbe6bef88bdd6b5ffU, 0x3dafe942bdb36c53U,
  0xbcf308bfbd0fbbf0U, 0x3d12101cbdad45f4U, 0x3c100d03be35b7d2U, 0xbe1af6023da438beU,
  0xbd9e9bafbdd7cd91U, 0x3de9b077be94d72dU, 0x3dd3e74a3dbb538fU, 0x3dd28b94be08d70fU,
  0xbda7af9d3d0d45dcU, 0xbdb340893dcba916U, 0xbdfddb5abd26799dU, 0x3d4f05843e337174U,
  0xba67799ebe0b540cU, 0x3cecdf3cbdfdef92U, 0x3e35bd60be3fd3f6U, 0x3cb320df3d83b0b6U,
  0xbdb446b7bdbf14e2U, 0xbc7b27a8bbc326c2U, 0xbe3ec3953e1d75c0U, 0x3e0b0b97bdc056aaU,
  0xbdcd7a523db8a4b3U, 0xbdc7a26bbd1ff036U, 0xbaf9c4e13cfafe5cU, 0x3da92b45bde9e4bfU,
  0x3e10819e3e2fd983U, 0x3e0ae67f3e19d80bU, 0xbdc450d3be817c5dU, 0x3c957fcbbe805c68U,
  0x3d1c6178bdc0d01bU, 0xbd830903bdc7310eU, 0x3e43d62c3e0e9589U, 0xbd8282133da96438U,
  0xbdb32a5abe8253c4U, 0x3de3c3603c98ad5aU, 0xbe34b262bd62d717U, 0x3e1c94ddbe91df2eU,
  0x3e298ef5be6bdd9dU, 0xbe3180283d8a7939U, 0xbddb59f5be1aa044U, 0xbe0c0e72bc26be98U,
  0x3da7dfc6bd71d220U, 0xbe13c29d3e25a06cU, 0x3dcc9672bdb7fb5fU, 0x3dd18817bdfc00d6U,
  0xbd5dc4c53dded906U, 0xbd91b5c13df9e4c2U, 0x3da49bbbbe37eb13U, 0xbd27ee59bd3b8af3U,
  0x3e37b4a93d759c8cU, 0xbe6283563e10b96dU, 0x3d104541bbfc5ec3U, 0xbd257611bd8c32deU,
  0xbd2484c8be27be98U, 0x3ca95fe73df02ff5U, 0xbdfc8b66bdfaa174U, 0x3dda997e3d2d4236U,
  0x3df94611bdd491caU, 0xbda868f6be2e00eeU, 0x3db3226ebd98b2c3U, 0x3e1271c2be3490ccU,
  0x3dd724223dd0f06aU, 0x3b2621a2bc1fa9a0U, 0x3d0005d3bc917900U, 0xbe2b156cbe14f87aU,
  0xbd3e0036bd490bd4U, 0xbd376c203e2444a4U, 0x3d5e19143cfc134dU, 0xbdbc920cbdd5be44U,
  0x3bbd9120bd31beacU, 0x3e2753dfbd04ce45U, 0xbdc3b0e13dfa8212U, 0xbdd74934bdcff3b9U,
  0x3e17d1c5be0ca900U, 0x3debe486bceb9488U, 0xbd94914b3d6d80e9U, 0xbc89f6d83db67098U,
  0x3d32b328be173bc9U, 0x3dbe907e3db83ef9U, 0xbe094d20bdd0b596U, 0x3e0f49ebbe136a60U,
  0xbd3f27133dc65c5dU, 0xbd9e4b733c94c2baU, 0xbd8708fa3d57a9fcU, 0xbe1762883deb927cU,
  0x3c70f6f0bd1ae2d4U, 0xbd4c8acdbd0cd63eU, 0x3d4de7b83e09b945U, 0x3e22984ebde6254bU,
  0x3db58192bdd821a0U, 0xbe17994a3d83510eU, 0x3c276ec93e30cae0U, 0xbcd6f15dbc169f44U,
  0xbdcad6bd3d6c6560U, 0xbdb562aebdefc725U, 0xbda464bd3e09ad63U, 0xbe2ce20ebe333321U,
  0x3e09358e3d6a5281U, 0x3deefb77bd8e5336U, 0x3d9eeb0a3d828666U, 0x3c027530be08c848U,
  0x3dc8c922bd985790U, 0xbd8aee223e0cd942U, 0x3da63dc23d2efbc4U, 0x3dfe1e063c563b52U,
  0xbe2d2852be198365U, 0xbd7a1b923e049292U, 0x3cc10d483dd0ebcaU, 0x3e0b05973d051348U,
  0xbcc6e3803db311d6U, 0xbd487b30bd03dcf8U, 0x3e2eb49c3e0c8ffeU, 0xbc2123dcbe348ec6U,
  0xbdb35a6e3e054122U, 0xbdd5571b3e06f309U, 0xbdede08bbce4f6b7U, 0xbd7bd7403badd2ceU,
  0xbdf0cda2be042cbdU, 0x3dabc761bd2a1864U, 0xbc1599343e15ec28U, 0x3e214db53da60e06U,
  0xb838098c3d1ab9d9U, 0x3e1e9edbbd6c6014U, 0x3d7ad4c4bd8d0c13U, 0x3e1e077b3d54fec6U,
  0x3e321a1dbd0af1b0U, 0xbe0a7b683dfc379eU, 0x3d7b09a13d3e7068U, 0xbd507a6cbc808ed8U,
  0x3d8802debe346922U, 0xbe1d58f5bc0e7316U, 0x3e1d460bbdf10fa8U, 0xbe1563763d744668U,
  0x3e321ef7bd7b2614U, 0xbd238cb4bd474bbcU, 0x3db8dd423e184f37U, 0xbe13f055bdde807fU,
  0xbd6c0c48be2d9af4U, 0x3e09a045bd4149d4U, 0xbe0b9cc2bdaa775bU, 0xbc1aacc0bdebac35U,
  0xbe0f7f7ebd2d697cU, 0x3d543a84be28de89U, 0xbd94f93abd64be37U, 0xbda73b5e39e695ecU,
  0xbe1a8b423d95c9b7U, 0xbc42a3003e0966a8U, 0xbded848abca84f59U, 0xbe12c9693dc2ce79U,
  0xbe1b3e8c3d8bfce0U, 0x3e1a2275bc6c1102U, 0x3d2e93c0bcea328bU, 0xbe308d8f3c64cb65U,
  0xbe004b383da2ecdeU, 0xbda0272a3dfdbfb2U, 0xbdf5f6d93dd920fbU, 0x3a876ace3e0deff3U,
  0x3d054034bd74a504U, 0xbe0d7ce4bdc1d439U, 0x3c98c9653e0e0e03U, 0xbe14d12c3dcd91b1U,
  0x3d9bf30f3da50571U, 0x3ded2ed9bdf5b41eU, 0xbd2de2943de19c2fU, 0xbd7ef05e3d8fa927U,
  0xbd55d90cbb6122c0U, 0x3ddc122d3e0f087eU, 0xbcd2f272be3375faU, 0x3e2cf2993cba2836U,
  0x3d110a6ebe236e0aU, 0xba81cf373d817104U, 0x3d00dce0be20fcc0U, 0xbc85214bbe058d62U,
  0xbdf0b9113d096e74U, 0xbe01707e3beb8fc9U, 0x3bcec9bcbdf1a788U, 0xbc975973bd71be34U,
  0xbda523083e0b8dc1U, 0x3dc83746be2f22b4U, 0x3b5432e3bddd8722U, 0x3e31fc1d3da1c475U,
  0x3c4f93f0bd2ca3c4U, 0xbd100b4bbd830388U, 0x3dbfad923e06494aU, 0xbdd77c89bbfaeab9U,
  0x3dad5bd6bdca6d03U, 0xbe08f40e3c26384eU, 0xbdae89dbbde67e10U, 0x3de803393e40ca24U,
  0x3d5447ee3e2324ffU, 0x3dc6a647bdb23cd9U, 0xbea7c0c6be18755eU, 0xbe1a8c0bbc792cccU,
  0xbe64e7203cc43b40U, 0xbe310ef2be0ecb17U, 0xbe2bcc583dc04450U, 0x3a4f6c55bdd16ef5U,
  0x3cfd6da83c2b08d7U, 0xbe353c873de66e7eU, 0xbdc480153e2e7968U, 0x3d5b772fbe65b192U,
  0xbdfc451fbe20c139U, 0x3d886ada3de6829aU, 0xbe35202f3e75d47cU, 0xbc084140bdaf1f6dU,
  0x3ca94dd83dda54daU, 0xbde20eff3e44e4e9U, 0xbdd446bebe00f2d0U, 0xbe1e18563d329be6U,
  0xbcecd60a3e8ed2a2U, 0xbdea7cd73dfb594bU, 0xbd59536fbe4ef230U, 0x3e50267abe620d4eU,
  0x3d0c3b67bde41d87U, 0xbe2bfa7c3e651cb1U, 0xbc487ac1bde5977bU, 0x3e585ab2be1762fbU,
  0x3ddba3d53e17f84fU, 0x3e04031f3e1d5867U, 0x3cf3df9abec8210fU, 0x3e25eedebe29e2c7U,
  0xbde26e40be028b53U, 0x3df7be013e5ee048U, 0x3dd2e2ae3c44c450U, 0x3df33066bc812ff9U,
  0xbd119321bc876a32U, 0xbc8ebd95bd025627U, 0x3da5385e3dec52c6U, 0x3d1abb74be7bf6fcU,
  0xbda4d03ebde084d1U, 0xbe14b5853d1513efU, 0xbe108bde3d1103ceU, 0x3dd02cc23ddb77e7U,
  0xbaecdd9fbe46663fU, 0xbe821162bdd53b19U, 0xbd6bc1103dfbd27dU, 0x3b8c0c623ca66f8aU,
  0x3e11d05cbe0140d2U, 0x3e18027c3c9b8d3cU, 0xbdbf4533be45948bU, 0xbe2516e13dc247c1U,
  0x3d1e1378bde3036cU, 0xbe2b9be8bd8aa5abU, 0x3da4fb0abe80f9f1U, 0xbe2d93af3bc5b53aU,
  0x3db50236be029b91U, 0x3d0739b6bad8c396U, 0x3e4d45da3d8bcadbU, 0x3c7a09f0bd1638b3U,
  0xbdcf93d7be31e188U, 0xbe192597bdc71a86U, 0x3c768e503b1430d1U, 0xbde49b4abd96396cU,
  0xbebee47ebe20fff9U, 0x3d9a22d9bd06e39cU, 0xbe924978be1c17b5U, 0x3e31c426be80c2a1U,
  0x3e1b49a6be2b658eU, 0x3e0a3cf53cbd877fU, 0x3dbcf0fdbd803fb4U, 0x3e1127e73dd0f982U,
  0x3d8dab603dac7edbU, 0x3e45f01ebec8e625U, 0x3dba055ebe6a1f90U, 0x3d37e5d63c9e097eU,
  0xbe18da543dd7dde6U, 0xbae8a7803dc28762U, 0xbe03bdd9bcbea1b7U, 0xbd85bbecbdaeae26U,
  0x3e1f94dfbe0a368dU, 0xbda24be6bedab335U, 0x3e2372ad3bed0f99U, 0x3e282cc33cf34f27U,
  0xbda0e5df3d1fab89U, 0x3d7fedd7bea5d9e5U, 0xbe3faeeb3e2b8443U, 0x3df39922bbe150f2U,
  0xbe51f4c0bd9f3fe5U, 0x3d5f78a53c085b50U, 0xbcd21e64bebc675bU, 0xbe3953cf3d04b59cU,
  0x3db11cc03d260184U, 0x3d4a88b43cb31eb3U, 0x3e636bff3c6e6538U, 0xbe1384a7be6413b4U,
  0x3db12836bd3a1b33U, 0x3e24cbdbbe3168feU, 0x3e6869413dd89b02U, 0xbc9c3ad73d26bbfcU,
  0x3e36c999be898a93U, 0xbd256c4cbd9c805aU, 0x3d6d64f4be944529U, 0xbda2990ebe82b7d0U,
  0xbd16c8d43d1b2135U, 0xbe3417683e398561U, 0x3dca7221bd765402U, 0xbe03b047bdc40251U,
  0xbe50e153be8f3ae5U, 0xbd8138b43dc8bc94U, 0x3d9472febe08fe95U, 0x3dd232343e26cfbaU,
  0xbe0eefb3bdd573ddU, 0xbe345f073e41596aU, 0xbcfa48f13d028d1aU, 0xbda3508f3dfedf19U,
  0xbe0205a33d249f52U, 0xbed9677fbe09dcbdU, 0x3e0d901cbd267d50U, 0xbdcdc9383dca1737U,
  0x3d2405ac3dd19afaU, 0xbd890dff3d70e6a6U, 0x3d9c5b5c3de92d2dU, 0x3d782a74bda82396U,
  0x3e2628acbe33d23bU, 0x3df062263e825fe3U, 0xbe024b163cffd700U, 0x3d82269bbd1368d8U,
  0x3de455253c8f0578U, 0xbe14872dbe323a38U, 0x3d7f760abe113ff0U, 0xbe0a3a443c1d72f9U,
  0x3d61e7f1be174f66U, 0xbe1ffcb8bd98e646U, 0x3d422e8b3dbfe7afU, 0x3cafefd23d68fc60U,
  0x3dcdcafebd31a734U, 0x3b78fd283eada902U, 0xbdd295c73d86af18U, 0xbe0355c3bda9e66dU,
  0xbe05ba003bc2d01cU, 0xbe1aa00c3e30a23bU, 0x3c894b213e5e66a6U, 0x3cd5f1c0bdc032a9U,
  0xbdb4d9a5be255457U, 0x3e6507423e7e7c3bU, 0xbd1e36fe3e08ebf3U, 0xbded65e4bd8268e9U,
  0x3e1c0c17bcc776d0U, 0x3933ee0f3daa5898U, 0x3bfab438be378e70U, 0x3e869ba13b43444cU,
  0x3e883b813b594eb5U, 0xbe35235abccbef7aU, 0x3bbc1936bd8017e1U, 0xbe0f4e053d8061f9U,
  0xbe05f437bd5edbceU, 0x3e2c3718bdf348eeU, 0xbe31dd443daa560cU, 0x3d8657cfbdddfc0aU,
  0x3dca6b3e3d010b4cU, 0xbd15fbe23dbef219U, 0xbe3b082e3dcb0b4eU, 0xbd83a335be17b6c4U,
  0xbdaaec7e3e1e72d5U, 0xbe3bb3bbbbb74f3bU, 0xbd8284f0ba604573U, 0xbdeaaa063e6be645U,
  0xbdc1289ebd86e71bU, 0xbb937e67be2efac7U, 0x3de5c0833daab14eU, 0x3e240b8bbe4962ccU,
  0x3e5ff2db3d4e893eU, 0xbd6aeb103de99be5U, 0xbc145d30bd02b138U, 0xbd6f2dedbdf0b18aU,
  0x3d30608ebb8f0100U, 0x3ded1e1cbd684e0dU, 0xbd5901b2bbe92afeU, 0x3d98b1dfbdabc008U,
  0x3decea39bd2c278fU, 0x3c33cdb63db95a12U, 0x3dd7d391be02008cU, 0xbdae66623da557baU,
  0x3cbe17b83d902ad2U, 0xbdbee3773e03132dU, 0x3d87f22fbd84ac49U, 0xbd3b0c343dc883baU,
  0xbd7e5417bc9221a8U, 0xbd79218a3d42751cU, 0xbdb84f893dcce137U, 0xbd133f9cbe09fbd3U,
  0xbdcc6a843cf9ef70U, 0x3d9aecf3bd8e8dd9U, 0x3df28090bd708de2U, 0xbd4819e9be24262aU,
  0xbe23165dbe2108a8U, 0x3e092dfb3de1b508U, 0xbe273e4a3dbfeef9U, 0x3d258cb43c92f940U,
  0x3db06d7e3d979bc2U, 0xbde53b2b3e0d6d1cU, 0xbd349c903e23481cU, 0xbcff923dbdcdebf0U,
  0x3d78fb183d555d4bU, 0xbe28e7a0bddbd329U, 0xbe08dbac3dbae256U, 0x3cfc85b83d353b2cU,
  0x3c8ca0383df6952aU, 0xbdbfe65abd3a8618U, 0x3d9793c4bde072b7U, 0x3d918750bd52751bU,
  0xbe22e633be0e73dbU, 0x3c7810903c47b86bU, 0x3dbccdd8bd479439U, 0xbdec68a53e033465U,
  0xbe012ada3e2ff1b4U, 0x3e031e77bdad4344U, 0x3cda78f83d825638U, 0xbddf6ce3bdff1000U,
  0x3da529553d3b2af8U, 0xbd1709333da044eaU, 0x3e274444be2d2b03U, 0xbd72716e3e219c8dU,
  0x3cd388583df523c6U, 0x3da1c9ccbdb94ce5U, 0xbd9f5f063e1fe79bU, 0x3db9d09cbe14870bU,
  0xbe0b67c73d0dd4b3U, 0x3d4e30b53e03f5e4U, 0x3d4b4538be3398d8U, 0x3db79e0e3ba0efa0U,
  0x3dacc0a63e3096d3U, 0x3e2f4bf6bd89382eU, 0x3d76851b3d86af2eU, 0x3c4394d0bbf860b4U,
  0x3dc43e19be11171cU, 0xbdf0e0093da6a20cU, 0x3db7d25abd05fde0U, 0xbc938bf8bda56ffcU,
  0xbd3f63473e344615U, 0xbd288ef4bdf060a7U, 0xbd9f3643bdf4d4c8U, 0xbe10fc123dc05526U,
  0xbe056aad3dfee4f1U, 0x3e300da7bd77568aU, 0x3e137ea83cf8f306U, 0x3e2198783da7c9b5U,
  0xbdd802453d110770U, 0x3c6b7200bb52c8d1U, 0xbcd91910bd9291edU, 0x3b4894003e577ef9U,
  0xbdfa050cbdeeec51U, 0xbe0902053e2c4366U, 0xbcf936483d2f3f32U, 0xbd52e0babe01e8d5U,
  0xbd826f74bd88f967U, 0x3d89f7d33d87ef32U, 0xbe085882be0db7c0U, 0x3d5f58b03d04e4dfU,
  0x3e036ce0bd77e122U, 0x3d962f023dbde5e2U, 0x3e0a99e1bb5c8f7cU, 0xbd394ff83e0bc1afU,
  0x3cdf80b03e0b5bedU, 0x3ce132aa3dadb158U, 0xbe01cd003d671771U, 0x3db667f03da690a3U,
  0x3ce702003de8f716U, 0xbe20085abc1e7cc0U, 0x3dc25599bdf72cf5U, 0x3deecb92be4a29c9U,
  0x3d9bcaeabdfe16b0U, 0xbd1e95433d5be7abU, 0x3e16d2ef3de6a34bU, 0xbd22cb09be0e6d2aU,
  0x3d8e8e58bd39f573U, 0x3dd666333dc12a0cU, 0xbe02d7523e0eb561U, 0xbd0141063e0c828bU,
  0x3d1ad97cbe3b8dfeU, 0x3d5d174dbe083f66U, 0x3d240b94bc8d8bf6U, 0x3da3401ebdd650a6U,
  0xbe18ebbe3de86256U, 0xbd5b7361be02a796U, 0x3c6fcb34bdb8bc60U, 0xbd33318c3e41c586U,
  0x3e04f2c53db547caU, 0xbcb09541bacf0c90U, 0xbe09f306bd793a98U, 0x3ccad7b9be211759U,
  0x3dbe96113e48a334U, 0x3e15e90abe248e44U, 0xbd6587b03d412f35U, 0xbe0a1d783abfeccbU,
  0xbc8f79403bc7548fU, 0xbdb99e813e130a44U, 0xbe106430be18d30fU, 0x3d38d73c3dcde28cU,
  0xbd19f545bdfd2908U, 0xbc3c11653e2cdf19U, 0x3d9f41cebdd426b8U, 0xbd8d65963d960bdcU,
  0x3dcca51e3d803c46U, 0x3d8ddd823e285c9fU, 0x3e2e44d33c691492U, 0x3e3025683d05440bU,
  0x3e2878903d6c92c0U, 0xbde6cc64bd83133eU, 0xbe07a3463e0e083fU, 0xbddd941ebe15b66bU,
  0x3b2a0600bd0611fcU, 0xbe2dc23dbe16f405U, 0xbca507173dd91b8fU, 0xbe2590aa3d57d6adU,
  0xbd913020be1906b7U, 0x3dae8faa3e80b3c5U, 0xbddacc5c3e0d6395U, 0x3ba3411d3e0be596U,
  0x3dd562b2bd46796cU, 0xbd8c19fcbcaa1ba0U, 0x3e8113953cdc7a28U, 0xbdcb62013e7f1919U,
  0x39cb5691be205cc9U, 0xbd9ee0573d536c41U, 0xbe27c539be037fe7U, 0x3cff4939bc986c88U,
  0xbdd69096be19671cU, 0x3d3005583e659760U, 0x3c8122c03e39d693U, 0xbd4bcbaa3de62940U,
  0xbe11200e3e15c81fU, 0xbca1d138be03d14aU, 0x3d692d43bcf1bfcfU, 0xbe1cd8e23e1bb279U,
  0xbe1370983da092b2U, 0xbd827a873e89c7ffU, 0xbddc21f3bc947c81U, 0x3e01659dbd187d59U,
  0xbe186f2ebdc19f95U, 0x3e1ef8253dd5436bU, 0x3dcf77593de6de91U, 0xbd96bd773e535ecdU,
  0x3e34843cbd10a351U, 0xbe11cfad3ddbc4cbU, 0xbd2faa273cf478b2U, 0xbdeaf0d6be4626d8U,
  0xbe1229753d75ffc4U, 0x3b7ecfee3d90d463U, 0xbe29689b3e5e24ceU, 0x3d7221efbc89962bU,
  0xbda51705bdecb2ccU, 0x3c17623a3da2628fU, 0xbca830a1bdfaa672U, 0x3e062c27bc8861c6U,
  0x3d6e55763da23f9dU, 0xbdc0e5043c67c7f1U, 0x3d987c623e6c9e9aU, 0x3d1b1e483e5607daU,
  0xbcced9a03e4bbc0dU, 0x3db549b93e1f3d60U, 0x3db4874bbdf0e42bU, 0x3d2fd330be13f44aU,
  0x3e17b7b03e30d3cfU, 0x3d42c6fe3d4c27c9U, 0x3d8893d83e10f956U, 0xbdc17b963df6aa47U,
  0xbe1a71f93e0dbcefU, 0x3e1c13873df5cbcaU, 0x3e0fccbe3c9f023aU, 0x3d439ab53e2d6548U,
  0x3ddc44f73d7b76c5U, 0x3e0f868e3da483a6U, 0xba67ad7cbd7698c9U, 0x3df07ed53e3ca128U,
  0x3dd2e33a3da6029aU, 0x3d3fa02abcdecdd8U, 0xbe2690c8bdea74ecU, 0x3dd1407ebd91ae8eU,
  0x3e27d962bd1d78e8U, 0xbe272b763e96dc24U, 0xbd82bce33bc8ae9eU, 0xbd911a8d3be4f409U,
  0x3e32f74c3df42222U, 0xbd53c0adbd358c3cU, 0xbd9aca7ebb7bee80U, 0x3e4354863d54c14bU,
  0x3d3f1755be27ce57U, 0xbd6bad443d98a73eU, 0xbe0afb103e183f08U, 0xbc5f0c97bd6ef264U,
  0xbd2219a0be29a3abU, 0x3c4652d63db219cbU, 0xbdae2eaf3e828388U, 0xbd295b68be2567b1U,
  0x3dcfeefebdd65f46U, 0x3dba5cf63dbc1456U, 0xbd9c97bf3d1cf619U, 0x3e10a1db3e36e6f2U,
  0x3d1eade1bdbde126U, 0x3dd3a7193e138e85U, 0xbe0c9984bd4852e3U, 0xbd66a24c3ca1ec14U,
  0x3da1e9e53e4e4ccdU, 0x3d97f4c83e2de102U, 0xbd73e9e4bb0dffa7U, 0x3e168cc63b8742ebU,
  0x3ece66ffbe28be94U, 0xbe1594d23cd45275U, 0x3d92afd33e0ab479U, 0x3e71d7ef3c600a19U,
  0xbe40009dbb587fc0U, 0x3d2add08bd1e034aU, 0xbd9611f9bc83480bU, 0x3e0158163ddfa08bU,
  0x3d586538be053070U, 0xbdbc80ab3d58d953U, 0x3dbcacc1bc9cc298U, 0x3cfed65b3d29586cU,
  0xbdc607ea3e767952U, 0xbc81f057bcc2447aU, 0x3e24486f3d800d30U, 0x3d3fba7c3e12f1b1U,
  0xbe32c89a3e09ab5aU, 0x3e6220e9ba472fb7U, 0x3d91d1e63dd6fb22U, 0xbdf4c542be1dd32cU,
  0x3d5a7ce63dcd804cU, 0xbdb0c6ff3e21e678U, 0x3d107860bb4bcf76U, 0xbc9d0527be28ddbcU,
  0x3d1e2292bdb59f0eU, 0x3e1df5abbd6a5501U, 0x3dfaf7a43e3a39acU, 0xbe1968e03c749e35U,
  0x3d27623b3e337154U, 0x3ead23c8bdaf64afU, 0xbd730d66bd9858edU, 0x3d64662bbdd6b292U,
  0xbd97d80cbe056f0cU, 0x3da59c28bd915b14U, 0x3ce5a9ca3dfd7e9cU, 0xbd8a5b173e425ec8U,
  0x3db9f4263d9b2cd8U, 0xbcf52598be6646a8U, 0x3e0733773d9b1c25U, 0x3d41107bbe0b1226U,
  0xbdb0f2f93cdf26d0U, 0xbcce0222bd662dbaU, 0xbe45a077bd9b4ad3U, 0xbd8f296fbd8ba83eU,
  0x3dd5c7093e2c4dffU, 0xbd989b683e30f9d4U, 0x3dfc2491bd9f0a9cU, 0xbe0718f2bd55e7daU,
  0xbdec224bbd9b7166U, 0x3e4ff02dbe8dd6dbU, 0x3c4295c0bdb11bb4U, 0x3cf60ea6bc2b304cU,
  0x3dd2992a3e663446U, 0xbc5150c03db47376U, 0xbc5a2c9bbe04d813U, 0xbd513b583db420b1U,
  0xbe2a451c3e2af5cdU, 0xbd6d8a6dbe435530U, 0x3e19051e3db681cfU, 0x3e277c8bb838401aU,
  0xbc248d9dbda242bbU, 0x3d7966a1bdec0a14U, 0xbe0d33cb3e190f56U, 0xbcc061b23da08155U,
  0xbd8a09713e1b8e06U, 0x3dcc7fc5bd2da7adU, 0xbe29ea21be2f29c1U, 0xbdd0305abca859ddU,
  0x3e3a7c2a3d9cc3deU, 0x3e4946033bc0defbU, 0x3e1c8c0dbd953843U, 0xbca6251cbd14b3b8U,
  0x3c9b99e03d5983f8U, 0x3e59f674bdcc632aU, 0x3e57f9b4bda40340U, 0x3b219f1e3e22a2e9U,
  0x3e0ce04fbe3e7ffbU, 0x3de847febdcabd4dU, 0x3e2e4f65be0ce888U, 0x3d9b5296bb7deb30U,
  0xbd9f97043db96d07U, 0xbdfe6dc8bd7d3cc3U, 0x3c3ebf8dbc8a7fd9U, 0xbd19c688bc226915U,
  0xbdb71a84bd1f2b69U, 0x3e0bcafcbcc54e88U, 0xbe1f77d6bd874623U, 0x3e28a0313d9a4295U,
  0xba738cccbe056518U, 0xbe0e28a4bc7e9a4eU, 0xbd566d4abe28cd62U, 0xbd80f1933dcac7a8U,
  0x3da131b0bd1c61edU, 0xbe17b71a3e0bf345U, 0x3deed0233dbc8984U, 0x3dbc6992bd8ed797U,
  0x3ce0ec28be0295e6U, 0x3e0d8328bd4925e3U, 0xbd16462dbd8feae1U, 0x3e2602673e7075d8U,
  0xbe1580e53dee0ad0U, 0xbd3724c43de5b12aU, 0xbe31dbe03d086ee0U, 0x3e0500d9bd907a53U,
  0x3e58e2793d3df048U, 0xbbf425583d28eb10U, 0xbdff40e83df4c952U, 0xbd3929a5be0a4bd8U,
  0xbda43988bc3cd8e0U, 0x3e2330273dd5d286U, 0xbe03a2d4bdea9499U, 0x3d360c2c3dee06a2U,
  0x3d87974c3d8e7823U, 0xbdf7740d3e6f252aU, 0x3bda6fc0bce5d745U, 0x3db90bd5be1f2a7aU,
  0xbe157b5c3dad9b13U, 0x3e262547be2500fdU, 0x3e2ec2d33e835760U, 0xbc2a5800be3ca8a9U,
  0xbad5f1683df6caeaU, 0x3e2479ce3edc863dU, 0x3df0b7de3e0d25abU, 0xbe42684f3d93cb18U,
  0x3e2be2443e3724e9U, 0xbd95fcbcbdcd93feU, 0x38e78634be31fbecU, 0x3e0b9e103d98ee0aU,
  0xbdce903abd563a7eU, 0xbe8551a03da57a23U, 0x3d800a503e0b19acU, 0xbdece9bebe5a6df0U,
  0xbe678c363e2458b5U, 0xbdd09ef2bde21e61U, 0xbcf116cfbe02d17bU, 0xbe099bb7be1782a9U,
  0xbdc8adf53e03974fU, 0x3dac556d3de7528dU, 0xbd06e29fbd8b5ee8U, 0xbcdb80bdbe3845bdU,
  0xbdbaec12be2a0299U, 0x3d38827dbe3a8db6U, 0xbd545fe4bdce055dU, 0xbe2f22a8be176fcbU,
  0x3dbffd9ebcf6c247U, 0xbe2f0c82be8201e0U, 0x3dbd4693bbd495d7U, 0xbc892d683db42b85U,
  0x3d08ffb4bdef2d21U, 0x3de1fa5e3e71923bU, 0x3ac3b2803e2093edU, 0x3e00fd4fbe358a9bU,
  0x3e2eb0e93e226239U, 0x3d017cfabe170851U, 0x3c36b4b5bcc5925dU, 0xbd34fca7bdad838cU,
  0xbdf5059fbd5d8c00U, 0xbb3955bdbd9200d9U, 0xbd9f0ee43e3713f2U, 0xbe8f238fbb92de82U,
  0xbe096c5dbd33ed60U, 0xbd12346e3c72aaadU, 0x3cd3d9c4bc4af6e6U, 0x3d814a743d496598U,
  0x3dff3534bc9cda08U, 0xbddc6385bd48d189U, 0x3e08b56b3de1115dU, 0xbe245ca0be159e01U,
  0x3d8ba65ebe224ca8U, 0x3d92709ebd74fb60U, 0x3baf9a713e30a11dU, 0xbc560a58bd6a489cU,
  0x3e0c4a5e3d850654U, 0xbdf793f2bd60a7d6U, 0x3e337799bd07ad5dU, 0x3c17e9503de5809eU,
  0xbd52b280bdef84ebU, 0xbd17d0953c8c7ff8U, 0x3d920ec4bdf8cc45U, 0x3c88d4433e31e902U,
  0xbdc605753d093063U, 0x3d00d1a43da3a9b2U, 0x3ccb4eb7bb995bcaU, 0x3c69e1003dae9e15U,
  0x3e1c31713c284960U, 0xbe2109973d274f3fU, 0x3dbe3b47bd8faa03U, 0xbde0412e3d74fc56U,
  0xbdc01814be2d04baU, 0xbde3d4bb3d916cd2U, 0x3d9016adbe055597U, 0xbce8612dbdd2033dU,
  0x3b925bb9bcdc43aaU, 0xbdacff733d0b3150U, 0x3e235729be1059bcU, 0x3da938dd3dc71ac1U,
  0x3dd12ac53dc1d936U, 0xbe056f503df96bdeU, 0xbe1bd2c03d5aee05U, 0x3df0d7253dc7d4dfU,
  0xbd8246debdf3370cU, 0xbe064d5ebdd85541U, 0x3df94c863e0bfb5dU, 0x3d851cab3d39a5e0U,
  0x3cf41b773e175f20U, 0xbe2a7edd3dba627eU, 0x3da0810abe21277cU, 0x3ddc4e52bcfe2446U,
  0x3e2f66af3df8748aU, 0x3e24efb23e14c84fU, 0xbe291af03d5e9d63U, 0x3de64ea23e0c4b66U,
  0x3b4c22433d3b3bcfU, 0xbdaffbbcbd93a6daU, 0x3d8e1c8ebca1437eU, 0x3da5b89e382068f3U,
  0x3d860486bd824a23U, 0x3d5440a13dcf6ef1U, 0xbdfdadeebe328605U, 0x3db1822b3d7a48e4U,
  0x3dfcb789bca9b4afU, 0xbddb440b3d922724U, 0x3d5e1eafbcdb9230U, 0xbe2923e13e28fdb4U,
  0x3da9d2d23ce17090U, 0x3d4a85b53e230c80U, 0xbe1d48d2bd9d4ea7U, 0x3c4c3220be22b93cU,
  0x3e13a2883e243358U, 0x3cab9ae03ccbbb8aU, 0x3d17baec3de98152U, 0xbd51eee93dac1b54U,
  0x3d583a72bd97f3e3U, 0xbd190c23be00dce8U, 0xbcfc839fbdf44c7aU, 0xbbd8a79c3e2a417aU,
  0x3e114b2abcbc5bb8U, 0xbd220864be337e86U, 0x3c22596d3d80ad4bU, 0x3e134e3d3e0793edU,
  0x3dc42de6bba1de33U, 0x3da3e0103d1c214dU, 0xbd6ac638bccc236fU, 0x3ba3710e3d3d6efdU,
  0x3d8ca400be105826U, 0xbdda66d83d98fda6U, 0xbd99bb293e26bb96U, 0x3e21f8233dcb595bU,
  0xbd1ab436bd8f7611U, 0xbd2e63c7bd63d1a2U, 0x3bfc62453abba00aU, 0x3d7454b4bd1985a6U,
  0x3c9c0ed03e21f2a4U, 0xbd82658e3d623cc2U, 0xbdc240f63e375664U, 0xbdebce543e2a0d41U,
  0x3e40ffbabd26648dU, 0x3e104e27bcc917deU, 0x3de7f4a2be1ea8efU, 0xbe1591d13d8d010cU,
  0xbe07961dbc0412d0U, 0x3d60aeee3cbd5690U, 0x3e0fb13e3dff588bU, 0x3e168b2c3e0f03d3U,
  0x3e04882d3e1eaf8cU, 0xbd6540cebe297d65U, 0x3e3f3d813e0a8b6fU, 0x3d8e68efbd1576e6U,
  0xbdff3a42bd426d44U, 0x3c6fd16abe1cd0edU, 0x3df3e1febde9a4f5U, 0xbe27c2cb3d962efcU,
  0xbd2cbf6cbc9c9f1cU, 0x3e2751f8bdb47715U, 0xbd07476d3d8748abU, 0xbddc6b52bd846465U,
  0xbd6e1c283e1b7f2cU, 0xbce452d7be219716U, 0x3e1fa07fbe20da96U, 0x3ddd2137bd151a1fU,
  0x3d2fee8c3d233330U, 0x3d11365a3dc6a193U, 0xbe10cbf53db92bcaU, 0xbd92a367be010714U,
  0x3c14ea2fbd8474b2U, 0x3db46d76bb1afe80U, 0x3dc7a29dbe03a3dcU, 0x3ca456633e0af571U,
  0xbdbcf74cbda34d6fU, 0x3e314e6a3e10b600U, 0x3dfb5465bb879befU, 0xbd00084c3c6882d4U,
  0x3d8895043e0b0912U, 0xbdee8da13ae8afcaU, 0x3e1b42653e023ff4U, 0x3e31a6823d9fb3c5U,
  0xbd45a191bdfbd02aU, 0x3e277481bc5401a0U, 0xbe2d55ac3e03a4b3U, 0x3dbad760bdacdc6eU,
  0xbd28d5893cd723f0U, 0x3e076e133d7d73d8U, 0x3df5ff1abc1e225dU, 0x3dba7a05bcd81bd8U,
  0x3d969b32bda3d98fU, 0x3dc06e4e3e259576U, 0xbd0bcc503dacb8ffU, 0xbd46a17b3ddc1bdeU,
  0x3e2c6837bde27f93U, 0x3db90f963d89c682U, 0xbe1225f5bd3bc90fU, 0xbde05ac53e293169U,
  0xbdde089fbca2e310U, 0x3d0cc349bcae286fU, 0xbda3cd1b3e24a2d1U, 0xbd1d467d3c39beadU,
  0xbb70fab4bc4399c4U, 0xbcb77884bdb4826fU, 0xbd9f33b8bddfcdecU, 0xbe0193dfbcef6ec9U,
  0x3e0a07d7bd892bb1U, 0x3e32d7cd3e2e7261U, 0xbe054dd73da361a7U, 0xbd550b703e0f0853U,
  0x3e25a2013e11e88fU, 0xbd6ff181bd1a4954U, 0x3e1891363cf9f697U, 0xbdc65aaf3d6ed3e4U,
  0xbbc17ac03d76d749U, 0x3d53e9683df70d3dU, 0xbe1374e13deb0cfeU, 0xbd270c1c3d4b49a5U,
  0x3e35dc22bdd11013U, 0xbe0b40c0bd935d56U, 0x3e0a0e8f3d2858ceU, 0x3e1da53fbc3978bbU,
  0xbe1e08573e146c12U, 0x3dbb1be83ad7ebbfU, 0x3e0a1efbbdbc253aU, 0xbdca22ef3d24f1a2U,
  0x3dd71fc4bc41d9d4U, 0xbcc95927bce4bd15U, 0xbe2b39ae3decfa68U, 0x3d97bffcbd12ad52U,
  0x3d8208ad3e0276fbU, 0xbdc7c96abe0a49f4U, 0x3b98cb74bdd4b206U, 0x3df5bfed3e008aadU,
  0x3e1984c7be092475U, 0xbd8478283dcde20aU, 0x3c8524a93db23024U, 0xbd4ebdb63e2ee717U,
  0x3dfe69e23d55ad4cU, 0xbc997f20bdc9b571U, 0x3da022ebbe33b693U, 0x3dbd876a3da4110dU,
  0xbdc049cb3e30ff52U, 0xbca7dc90bd13d31dU, 0x3df3088a3d0b0eefU, 0xbdef451c3cea7f44U,
  0x3df25c77bd810418U, 0xbced06d23e240e93U, 0x3e8adf14bd115dd8U, 0xbda4e865bdc1948fU,
  0x3bb18408bd6d1f2cU, 0x3dedcc16bd338a78U, 0xbd2951b5bdf4fee6U, 0x3d8932a7bd2562dcU,
  0x3e1af5093d5957b5U, 0x3dae72ccbe2f3a7aU, 0x3bf70f20bda390cbU, 0xbd9c86583e21dd62U,
  0xbdcd4e733e3e0553U, 0x3d1b1fa4bde22a03U, 0xbc694803bd25ba65U, 0x3e2b5063bd8195e8U,
  0xbe01084a3dfaac86U, 0x3e2082a0be39b303U, 0x3d9e97b9bc9c6165U, 0x3de3a81b3e439027U,
  0x3e2f302abd6abbb9U, 0xbe2f39cf3dce90b5U, 0x3d8b2205bd57779eU, 0xbd15be023dcc1b40U,
  0x3e1602d1bd94c566U, 0xbd9289cbbdc74b56U, 0x3d9f10073c1d5a81U, 0x3d45acbd3e23ec38U,
  0x3d5bad5abe1b7bd6U, 0x3d2bb0aa3e0588ceU, 0x3d4164eb3ea94786U, 0xbc4962883e45da3eU,
  0xbcffc6c8bcff128aU, 0x3d51829ebdadc799U, 0x3d70e253bdf1fb26U, 0x3cda3eee3e4489e6U,
  0xbdace1c43e282d34U, 0x3e1d37673dc01873U, 0xbe2e89abbe100714U, 0x3e0f99cb3ac8001fU,
  0x3e2c379d3e3c360fU, 0xbc99f3c7bd678519U, 0xbdb13f443c177759U, 0x3ca7edf83e13c957U,
  0x3aa04306bc3a7a13U, 0x3e4390553da5dac7U, 0x3da45c9abdf2ab83U, 0xbbb6b92a3e836fc8U,
  0x3d5e7b08be0021d5U, 0xbd324589be3a4223U, 0xbd092351bd903a70U, 0x3e2f715a3e14383dU,
  0xbd9b773c3c91be36U, 0x3db411cabbd9ab40U, 0x3d367c963e3d4b6cU, 0x3bf424623e01c38cU,
  0xbe1bd6bebe2de2cdU, 0x3cc37d263d48612bU, 0x3dfb8e9a3c100e2aU, 0xbe005f7ebe121eb3U,
  0xbd697c28bdc5ca6eU, 0xbdf94337bd8aa8a4U, 0x3c2dfe70be336036U, 0xbddd78f5bdc52468U,
  0xbd943afb3d2ded18U, 0xbd9c63d6bd648e9cU, 0xbda08541bdcb0218U, 0xbdd20c24be06b0e5U,
  0xbba5cfbabde73e73U, 0xbc1630f0bd8b2730U, 0xbd1ed6a33e2102b9U, 0xbdc1710f3cdb8a00U,
  0x3e2a0e71be04a7c9U, 0x3db01459bd8656d5U, 0x3c3016f03c8f896cU, 0x3dc6f45abcb34034U,
  0xbdddefe0be3cd1c0U, 0xbe1187563e00858fU, 0x3e06716c3db32cd9U, 0xbcadc598bc18b5cfU,
  0x3d7f5677bd5ee5ecU, 0xbd5562993e0a4301U, 0x3d282af73e14bbfdU, 0xbd25a42c3e3f71e5U,
  0x3e1f60173e2377a0U, 0x3b06c3103e601600U, 0xbdbbb2b73d8b8012U, 0x3e16d78abc1d408aU,
  0xbd4394853d9ba17dU, 0xbdfffa27bd614c15U, 0xbe0c491c3bcdbaeaU, 0x3d2cf5b33b320d80U,
  0x3cce3fdebddd7559U, 0x3e2ba7d3bd843d8aU, 0x3da8d2923dab7e6eU, 0xbe2ef8b9bd1c24d3U,
  0x3e2351e5be07fd5bU, 0x3e15a400bdfe1360U, 0xbd68a80d3d20fe90U, 0xbe17d4a2bddc9ac7U,
  0x3e2ba82f3dc0759bU, 0xbdc14e6d3dee7846U, 0xbe02f4ba3df0832cU, 0xbe07eb36bd723948U,
  0xbb96f5e03db079b1U, 0xbdbddbdbbd6ca98eU, 0x3e3399c4be296d87U, 0xbd276a303e0028fdU,
  0xbe188fa03da31366U, 0xbe3f90bb3dafc0caU, 0xbd9c05f73d89d326U, 0xbe16e23d3dd4af80U,
  0xbdebdaba3d757394U, 0x3e077e01be2cad15U, 0xbe1a2fe73bf6a639U, 0xbe2dcc5bbdfb711cU,
  0xbdd6510c3cd6dd5aU, 0x3debe4ad3d6ddea0U, 0x3c02d8a3bdfc4d46U, 0x3e0f240d3d89a2cfU,
  0x3df539fa3bef2160U, 0x3e06cc453b32f62bU, 0xbd4975363e0a5a02U, 0xbda0a8fa3e225545U,
  0xbd6cd19d3d984317U, 0x3d1a02bc3e6db494U, 0x3ad34680be00be2bU, 0x3e1d0487be3a0bf2U,
  0x3e6f29c5be0260d2U, 0x3e0a17d03e00c863U, 0xbda1c4ee3e15cf9bU, 0x3e262e8a3dc27197U,
  0xbe0f24dcbe2abd82U, 0xbe2ad5653e35efecU, 0xba8af115be68c72bU, 0x3de17661bce17db8U,
  0x3c00ce00bcfe48c7U, 0xbe8446d33eb61367U, 0xbd3f8e083e984be9U, 0x3d983ffbbe4c45d1U,
  0xbd9dd47bbdbb890cU, 0x3e2687e9bd853feaU, 0xbd0d7d123cb7572aU, 0x3dfc25323d297091U,
  0xbd92e5b73cf07340U, 0x3e6257cb3e85e880U, 0xbe75d5a93e0c574fU, 0xbca0ef45bd3a50dfU,
  0x3e2152bd3cf389f2U, 0xbcce6c383e00629dU, 0xbd8a3198bd7aa029U, 0x3e6d7b6ebcefd86aU,
  0x3e06c2e8be15214eU, 0x3e3b3ef8bc35e8a0U, 0xbd2e76d73e8bf633U, 0x3c7c662cbdb2f161U,
  0x3cc504173dec1476U, 0xbded0a16be2ee48fU, 0x3d53f924bdc9c69dU, 0x3d915e213e285313U,
  0xbd6b06423e282c74U, 0xbda86c05bc86d368U, 0x3e08fb2cbc7dbe90U, 0xbc883bf9be696579U,
  0xbe428cb73e228a9bU, 0x3dcc782fbe4df984U, 0xbe1f13f03e6cc33dU, 0xbe16696cbda82d28U,
  0xbad0c1803d814526U, 0xbd88df37be7e84d8U, 0x3e3a77a1bdd6ed4aU, 0x3dc9819a3d8d824cU,
  0x3e0e0ed93e4b493aU, 0xbe21c8193e4c9fc9U, 0x3daba7263db35e50U, 0x3e2231cfbe5b3b07U,
  0x3df50dbd3e1dc689U, 0xbd91ea25be243e59U, 0xbe66ac633e55e8d2U, 0xbd2b59a4be08da5dU,
  0x3e39b536bcc77efbU, 0x3bb26b63bdcf6287U, 0x3d01911d3de35252U, 0xbe5379903e1c4c68U,
  0x3e2d5c49bcb5d3c8U, 0xbc4088003e309d29U, 0x3d511658be0c45ffU, 0xbe0a157e3e24babbU,
  0xbe286ba9bc344850U, 0xbdbf7f563ac5e280U, 0x3d47cd743e0fa161U, 0x3e102971bd038834U,
  0x3dd1e0063d80d376U, 0x3d3808683d97dc66U, 0xbcce05c83d7b270cU, 0x3e34a5213a47c800U,
  0xbd4e0e4cbddb6189U, 0xbe0a9115bdebe346U, 0xbd4e64c83d14b570U, 0xbd6be3d83db55b66U,
  0xbdb7db53bd905fa2U, 0x3dd308d2be2cfe9eU, 0xbdbe5b80bdbf59edU, 0xbd9eac8b3dc7fdf6U,
  0xbdc0bfb93d3dffccU, 0xbe0e80283d94874cU, 0x3db6836e3c8f67f0U, 0xbdaac0423d2b0ff8U,
  0xbbc96fe03def65f2U, 0xbd738ec6bd2e7a2cU, 0x3ccce9403e29cc71U, 0x3c10cbc03e0d8857U,
  0x3da417d6be03aad4U, 0xbdd7e6893d3d3858U, 0xbd0497e8bdc416aeU, 0x3e333b633d1bc690U,
  0xbdf374c4be234178U, 0xbbcc74c0bd07fe74U, 0x3ddc85b23d25d3bcU, 0x3c60fa90bdd049f3U,
  0x3c847a403dfb02c6U, 0xbe057a863d441c24U, 0x3d934c36bcf3bed0U, 0x3dddb2463e033683U,
  0xbdfe3a3e3e0af58dU, 0xbde645533c7c8f90U, 0xbda81be93d90d7dcU, 0xbdf4be30bd9a4bfaU,
  0xbce82110bcb576f8U, 0xbe139394bd7cca48U, 0x3dc8d47a3d38fe84U, 0x3e1dc9a1be1a5463U,
  0x3c7eac503cae9388U, 0xbd98f22ebdc4847bU, 0xbe2216843dfa0b66U, 0x3d875a3ebe2712d8U,
  0x3e093abfbe203106U, 0xbcdb0cd83e05e4d3U, 0xbe0916cebb6e8200U, 0xbdc51729bda98976U,
  0xbcc5d8a83de819aeU, 0x3caeef48bdf6fd60U, 0x3dab24163e1c2b25U, 0xbdc40873bcb4b820U,
  0xbd9c3508be0faf87U, 0xbdbd52f43e2d287dU, 0xbdf95c8abcd8eea8U, 0xbd0dfba0be0fd8d1U,
  0x3e0172873dda6f06U, 0x3e27f8de3cdedf91U, 0xbd1904cdbe1f9b31U, 0xbd41f9f03e34df1eU,
  0x3df9c69fbdc1e29aU, 0xbde6e3dfbe5186f7U, 0x3ce4c2c03e26c167U, 0x3e0d15f7bdbb0c56U,
  0xbdf1036abd5698daU, 0x3e1a323bbe134ffeU, 0x3d09e589bd1711d4U, 0xbe0b4d2ebdeed6bdU,
  0x3e1dc4da3c0734b0U, 0xbca024783da8de74U, 0xbe096c2cbdbf36d4U, 0x3d0d7dcdbc855cf8U,
  0xbe0c97fd3e22c18bU, 0x3e4bbfb9bcefe393U, 0xbdbc0d443db298dfU, 0xbd857fc3bc942a42U,
  0x3dcf75563e8340a7U, 0xbd393d943db30f52U, 0xbdd727c93cabb584U, 0xbd96f7ac3d0c6ca5U,
  0x3b8d1347bdf3ae49U, 0xbc4e1f66bcb0bbf6U, 0xbd239226bd90daf5U, 0xbd4adebebd7fb714U,
  0x3dd78614be61eb75U, 0xbd997e60be031343U, 0x3e352df63df99936U, 0x3b3fb71b3d8fee18U,
  0xbdb339623d932512U, 0xbcf57f42bd03db25U, 0x3c91192c3e2cbdadU, 0x3db78b2d3e34be72U,
  0x3e105aaa3d3b00fcU, 0x3d870fc9bc067108U, 0x3e25ed493dc566a2U, 0xbbee942d3e3e91c7U,
  0xbd364f143e34b43dU, 0x3cb2ccb4bcf23518U, 0x3e240dc0bbb8fe20U, 0xbdb3539d3debc115U,
  0xbdf515483df63b6dU, 0x3e39b75dbd30f024U, 0xbd0fd088be13d0beU, 0x3da33ba63e5d5546U,
  0x3db9d0123ba1dd00U, 0xbe3f17123e862d7dU, 0xbc83c145bdb1b446U, 0xbbf37f603d5b656dU,
  0xbc7e3faa3df2af01U, 0x3e6b20dbbe12ae50U, 0xbd8ea39dbdbbf54aU, 0xbd5852ec3e5f5eb3U,
  0xbe1ddc75bde051ddU, 0x3da1848a3caf797eU, 0x3e6b8b093dd65a02U, 0x3e2717fb3da5cb88U,
  0xbe76f9ebbe0ce0e8U, 0xbdc1f5dcbdfa0ce5U, 0xbe0408e43d24e06fU, 0xbd7b9f183e3abb05U,
  0xbce75668bd91b7c0U, 0x3d22371bbcd8068eU, 0x3e2bd631bdf34048U, 0xbd931aa13e1dca13U,
  0xbe34779abe289fe2U, 0x3de884aabde728f8U, 0xbded22b53de33876U, 0xbdcf1868bdaf1ff5U,
  0x3e00d6aebc36ff70U, 0xbd3c05253e14a0a9U, 0x3e21381dbe141a37U, 0xbb9913f2be00917bU,
  0x3dbc7dec3dd2df82U, 0xbd3894dc3df01fe3U, 0xbdc4d518bc816c09U, 0xbd66dd903dddddb6U,
  0xbc698e50bcf9e00bU, 0x3df0ac893db35a49U, 0x3e223395be548958U, 0xbdadb6213e424fe0U,
  0x3d85a0863d6347c2U, 0x3daa833abdb9b817U, 0x3d6459c43e2b194eU, 0xbe33f7c9bd94dd16U,
  0x3e2ebc8fbdc9d3f6U, 0xbe30258ebea651c3U, 0xbd95b6dd3e37fdd2U, 0x3e428c8b3d26fc38U,
  0x3df98e30be17335aU, 0x3d1639fbbe1c658fU, 0x3e27f1d5bd82caa6U, 0x3d89fc4fbd8b3baaU,
  0x3de5f3ac3e138a73U, 0xbe28712ebd36d758U, 0x3e307cba3dfc0520U, 0x3dc86ff9bdcb0779U,
  0x3e0295803d89a2a0U, 0x3dec9dfabde488b2U, 0x3df048483bed8276U, 0xbe13d442bdc59675U,
  0x3c1f59b03cacbad7U, 0xbd9fd5cabe40f4b6U, 0xbd1156aebe2accb8U, 0xbd5761ea3d63aa32U,
  0xbddbf0cebe03932bU, 0x3e4ac5d53e186853U, 0x3e2b9ac33d968c9aU, 0x3e0bed193e65c062U,
  0x3e0592813e45f880U, 0xbd40819fbcbfb0ecU, 0xbe00b2663e312846U, 0x3d04d6a0bcaf2c40U,
  0x3e24c31f3d1c7188U, 0x3cb4cab9bd77c88eU, 0xbdacbdedbde17a43U, 0x3e15ff223e3d96f1U,
  0x3ca6f831be23ea36U, 0xbd434fb4bd73cdd4U, 0x3d451cfd3e201e47U, 0x3e0594173e0a533fU,
  0xbe06de2c3e26173dU, 0x3d132bbc3d423ca0U, 0x3d58c2663e18d516U, 0x3c89fc56bc65dfa7U,
  0x3dfd11d6bd9d522cU, 0xbd9e017fbe142c8dU, 0x3e8eef723c3fd35cU, 0xbcad43383e89b949U,
  0x3d577cc2be0310a8U, 0xbe337715bda46c02U, 0xbe19ab723d5df654U, 0x3e09a9a93d97c8a2U,
  0xbcdb27f4bdc304caU, 0x3dc02c9c3e20a97bU, 0x3d298a8f3dd34c5eU, 0xbd26b995bdd00bd2U,
  0xbd1d17c13cfda368U, 0x3cef4480bd4dd881U, 0xbda1350d3e397977U, 0x3d25994dbe1d871bU,
  0x3c76d800be24baacU, 0x3e650193be6d688cU, 0xbe03935abc8894a1U, 0xbe297a613e8163fbU,
  0xbd424624bbf45de9U, 0x3b880580bd5fb3b2U, 0x3c588bdabd5162baU, 0x3c55d420be016302U,
  0x3e2cf36abda6c036U, 0xbd85afb6bee97c78U, 0x3e1997593cac579fU, 0x3e6132853dea0df3U,
  0x3e59c658be184c94U, 0xbe2f5e92bdb9172bU, 0x3e2551b2bc61a69fU, 0xbc7a8c623ca59d55U,
  0xbe95746a3e454367U, 0xbc92ac44bd8a784aU, 0x3dd03b90be6f5300U, 0x3e15e099bd884b85U,
  0xbcba0373bcb00848U, 0x3e169f97be21362fU, 0x3e0acff53e5a168fU, 0xbdb6d6ec3ce92e0bU,
  0xbe1a74623c0c6f85U, 0xbd71ae5abd0d56edU, 0x3e48335a3cfcd9c8U, 0x3de101893e458095U,
  0xbd32a9f43ca817fcU, 0x3c68cc9c3e49fee2U, 0xbbbba220be8ec481U, 0x3e1e9bb13e261a75U,
  0x3d957dd03c01596fU, 0xbe01ef8d3e3a1f90U, 0x3de453563dd401c3U, 0x3cccf650bcea7bd5U,
  0xbcaee970bdcb184eU, 0x3e8a0e14bda84e10U, 0x3cd33680be3f6b78U, 0x3e12cb363e907670U,
  0xbb962943bd77568aU, 0x3e06057cbe4dabe1U, 0x3d927725bd4452e0U, 0x3e9c8117bc5d9529U,
  0xbd1a717ebd09444fU, 0xbe8376a63e0f2801U, 0xbe4fb0013d160bd9U, 0x3e4b6ab33e8b4369U,
  0x3cda7b58bddc047bU, 0xbdfaad48bda45fc8U, 0xbd0039233e0def91U, 0xbde0018b3d48f6d9U,
  0x3de5f298bd1fd498U, 0x3dcd187ebd3027d8U, 0xbe015301bde7e82bU, 0xbdecb7cebd52bc14U,
  0xbe05299a3dd1081eU, 0x3dc9fc963dc1088eU, 0xbe0cc011bd865727U, 0xbe0a90883c11637bU,
  0x3de9edb7bcdfbea8U, 0x3d37dbb8bdb4357fU, 0xbccbf81c3e1a901bU, 0xbd5a03823ddfd48eU,
  0x3cc74fb0be0cff86U, 0x3b398cd03e224c26U, 0xbdd505333dc911f9U, 0xbdfedc973d003c06U,
  0xbe240eaf3e3a2bcaU, 0xbdec4420bdcee0c0U, 0xbd04c24f3da7b9b3U, 0x3e17b439be00d359U,
  0xbe25c4ea3cda08a0U, 0x3dfe28a93dc1fabbU, 0xbdea228ebdfbc21dU, 0x3dd3fc74bd447ec3U,
  0x3d88d25fbe28b85cU, 0xbd5253dcbd3e7d8dU, 0x3dd187b9bdf18130U, 0xbd761774be1f33e3U,
  0xbe0d1365bcdc45e3U, 0x3e28cfe03e311c88U, 0x3d3bbb88be1bad95U, 0x3d8f3aa63e15a29eU,
  0xbd90f4e23da6e1eeU, 0xbe0b69b6bdb7012fU, 0x3e21f1203db04a82U, 0x3d870d1b3e06f805U,
  0xbd7f7d64be254c05U, 0x3e231faa3ac55282U, 0xbe10acf93da6262eU, 0xbe05b4ad3e3cff6aU,
  0xbcd91b243dab172bU, 0xbe17f615bdf9a026U, 0x3e12f2413dde6b65U, 0xbdeded29bb8451b2U,
  0xbe07d05dbd0efc79U, 0x3d06cf5d3d03e57fU, 0x3d9a2ad2be095c9dU, 0x3e21c4753d8e9121U,
  0xbc6a93d13dfbd44aU, 0x3e26dc2abe2beb94U, 0xbe0df4cd3d22b75fU, 0x3cc95c1bbd47171cU,
  0x3e267d403d8ae730U, 0xbda42c73bdeec428U, 0xbe195dbdbdc78c35U, 0x3e0d0a413e1f7afdU,
  0xbe38ba1d3e03b601U, 0x3e010001bda35b77U, 0x3e34bbaabd970fbfU, 0x3d1825a83de1e265U,
  0xbe22a57c3e30e3e7U, 0x3c489cd73e1a39bfU, 0x3e1f80b73d444fd0U, 0x3bcea140bd4638c8U,
  0x3ddbbba23dd5bc93U, 0x3dbb8a42be13cbd2U, 0xbc3975d03de098f6U, 0x3e3cf3283e098136U,
  0xbe4b0ec2bd01b540U, 0xbd42ab8e3e139d75U, 0xbe2a624fb7efc000U, 0xbe225f39bdf2b1c2U,
  0xbd8e7fb3be0a5e2cU, 0x3d8954283ced0914U, 0x3e2bfe203d6c58d3U, 0x3de0bcbfbdc552d3U,
  0x3d42152c3d9bde42U, 0x3d490d01be5cc8fbU, 0x3dab255ebde50cb3U, 0x3d6f20f93e55db96U,
  0x3dc79ffa3cf6e924U, 0xbe117956bc4ff1d0U, 0x3df39da63e375e40U, 0xbd8240c5bd67b960U,
  0x3d974f723e0dae83U, 0xbe0ccd01be5cca36U, 0x3e41227b3dff1f13U, 0x3e40dbecbddc82c4U,
  0x3c099aff3d60b925U, 0x3c73f128bde9d8e1U, 0xbe018718be06d5bcU, 0xbdd084f2bde4d018U,
  0xbe1f34813e0639fcU, 0xbcc7581a3d8f4317U, 0x3df41cfabe148c6fU, 0x3d7e4739bd9a0b8cU,
  0x3d7d29abbdb19631U, 0x3e1d4cceba847822U, 0x3beffde0bdfca30cU, 0xbdd8af8cbd6171baU,
  0xbd310b083e048a1fU, 0xbcb5c84ebd8acd52U, 0x3e33cff5bdea6ef0U, 0xbdb69510be07f346U,
  0xbddcfe193d66166cU, 0x3e2e304a3e4aab03U, 0xbd7e5c723c31e466U, 0x3d8c2c683e1a151eU,
  0xbc9192c0be31a672U, 0xbcae86d63e5b20ccU, 0xbdca7ce7bcba9787U, 0xbc3c79a0bde7c664U,
  0x3cb8c7bf3e10b42cU, 0xbd8d57713dd6e431U, 0x3de08576bd1ced0bU, 0xbd9c522b3e386a63U,
  0xbcbcc9273dd1e4d2U, 0xbddbd9bcbdbd85d1U, 0x3d71d2513dbfcc94U, 0x3c7cd5793cc06e5bU,
  0xbe1b3ddfbdfc70e9U, 0xbe53b421bdbe777fU, 0xbdeebd823e6a519aU, 0x3c3e1abe3d1df405U,
  0x3e1f6821be2e9d3fU, 0xbe0b90323e2cb02dU, 0x3daaaa273ddb8b3bU, 0xbdd777743c8a1d7dU,
  0x3e26547fbbf81cc8U, 0x3e2deb493e2c8c1dU, 0xbdc77916be30df3fU, 0x3e096073bd792e8aU,
  0x3daf1ca03c63a710U, 0x3ddfa78dbd3b4f90U, 0x3eacc063bdf62796U, 0xbe0b63f53dfb6d2cU,
  0x3e73e6e1bcdeae68U, 0xbe10c60a3d204528U, 0x3dc998733cd813bdU, 0x3ce647d63ddfcb1eU,
  0x3cc35b30bde9b948U, 0x3dc0c1f83ca47475U, 0xbe274f7bbdd92fc1U, 0x3e059d933dea4816U,
  0x3da612723cbe3490U, 0x3cdd6818bd82dbcdU, 0x3d8c1d67be452c78U, 0x3dff9d52bd8dd54cU,
  0xbd967857be182dd6U, 0x3e5e0458bd443f12U, 0x3df883293d881c01U, 0xbdbb9882be128d63U,
  0x3def66d3be831b15U, 0xbdc69669bd136022U, 0x3c35081cbdf96c4dU, 0xbd87c04a3dc5ebf0U,
  0x3da2da4dbd627174U, 0x3db58ba7be4c1ca2U, 0xbdb317b03e6ac325U, 0x3dc24b8f3d1d559eU,
  0xbb81cfa83e291e43U, 0x3d8dc8433e146b3aU, 0xbdb61a6b3e8a58b8U, 0x3cde6e3f3e75b1ceU,
  0xbd1682a4be16d2baU, 0x3daf53be3d98a05eU, 0x3d96afd7bda4ae31U, 0x3c2f962e3d96a4d0U,
  0x3db0967dbd43bfc4U, 0xbe1f2aa9bd39d19aU, 0x3d8d911a3e1e9679U, 0x3d8c49a03e038b41U,
  0x3d9f2fea3d80213dU, 0x3d205d293e6d4ed6U, 0x3d9e0f273e19616aU, 0xbdb08bc53d0600d1U,
  0x3e31d0f53e303ff2U, 0x3e5a113f3db22763U, 0x3c4fa350bcf906f3U, 0x3e03beb53d76bd40U,
  0xbe25d8503e042409U, 0x3d6687a2bd892d62U, 0xbc937f943dd3ceb0U, 0x3e063bdfbc668085U,
  0xbe71f709be32953eU, 0x3df7b96ebdbfa50eU, 0xbe4c92e03dd18e36U, 0xbdd24f8e3d34e8c3U,
  0xbbae7320bcdff200U, 0x3dbb81433e0bd67fU, 0x3db6d659bdf71240U, 0xbcd6d5883e4a582cU,
  0x3df25aaabe27b0bfU, 0x3e0edecdbe1dade6U, 0xbd07b13c3d298b6aU, 0xbddca8483de952b5U,
  0xbe73258a3a0e4000U, 0x3d6c96b7bdc3712cU, 0xbe745967be096118U, 0x3d04ecfbbe6845b6U,
  0x3e0b06c5bdd4e87aU, 0x3d005e843cf11215U, 0xbdb300d23e28d3eeU, 0xbd0ba7913e11a009U,
  0x3bd7dc603c32bee3U, 0xbcf88e49bd2729d4U, 0xbddc97a0be48d786U, 0x3dfe55293e4f4736U,
  0x3da077eabd7de7e8U, 0x3e262ec33e303a07U, 0xbe586e92bd4aa254U, 0xbe03d9a23e0471afU,
  0x3e1b36d8be155efaU, 0xbe129680be896a76U, 0xbd12110ebe5dbac3U, 0x3de2f1713c4697cbU,
  0x3b9a232bbe4f5271U, 0x3e1f68a7bd109a06U, 0x3df1ffe53e2ea70eU, 0xbb5575833dbc302bU,
  0xbe8e7b6b3e22f9f2U, 0x3d49fdb03c87e81eU, 0xbdb03cecbd8f149bU, 0x3dac6b1f3c7a052bU,
  0x3e17b31a3c72eb90U, 0xbdfa53273e1e9283U, 0x3e145692be0d08a0U, 0x3bfba674be3e7b66U,
  0x3d7e67fcbcc6f7dbU, 0x3c6be975bd025b5eU, 0x3e4cfa5cbca01ee8U, 0xbd1c7739bdac2f5eU,
  0x3e1f29c9bd814a14U, 0x3e1fa1c0bdc038fdU, 0xbd058ae4bdaf9c96U, 0xbda4e3fabe896530U,
  0x3a5b3a00bd813a53U, 0x3d6ae78c3e2f6d84U, 0xbd246e473d9dd258U, 0xbdad2130bcb1c9a7U,
  0xbe14c5c9be4aac87U, 0x3dbdcef93d969dccU, 0xbc5cf6a0bdaedfe0U, 0x3dc860253daa7c5aU,
  0x3e1e615e3db4f2ceU, 0x3dd2552b3de3e0d6U, 0x3dc0e3eabe5f3b24U, 0x3e43445e3e2e21e3U,
  0xbe0e15203d0d4598U, 0xbebd300ebe23ef68U, 0x3e24602e3df171baU, 0x3c8ee4f9bda76014U,
  0xbdd63e293c7f0920U, 0x3c8cd5283d4ac40cU, 0x3e24dcf3be20c181U, 0xbe04ebc4be1be839U,
  0xbddfca2bbd8b6d18U, 0xbe07d2e2bd89e2c5U, 0x3e1e14813e342157U, 0x3e08aca5bd839905U,
  0xbd8101c1bd2aed68U, 0x3e15bbbdbdceca1aU, 0xbd6c4e163d4f8d8cU, 0x3ddce5223d588c1cU,
  0xbdb012be3c2cf810U, 0x3da3cda6bd9ba468U, 0x3db42032bd6a482eU, 0x3d96d8c6bdf2e7daU,
  0x3d84a6fabe00619eU, 0xbd7b3034bb964180U, 0x3d1f364cbdf254e2U, 0xbdf30c7e3ba50ac0U,
  0x3df9ccbe3de788d2U, 0x3cffd9183d97bfcaU, 0x3be20b80be3346e0U, 0xbc065d103e28507dU,
  0xbd322560bd73c544U, 0x3e20dd8fbd92c8c8U, 0x3e294179be34643dU, 0xbcfcf588bd5eca16U,
  0xbe2b94423d85916eU, 0x3c2d72403dede8deU, 0x3dd824b23e2d3777U, 0xbd29b02c3d2b754cU,
  0xbdd0bccabe07c41cU, 0xbd94ee1dbde97110U, 0x3dfa265abe03057dU, 0xbddef3cd3dbfef7aU,
  0x3e184c83bcc26ca0U, 0xbdb9eebdbd5a568aU, 0xbd632ae4be171800U, 0xbe2d6a903dfdeadeU,
  0xbd53419cbe2ceb75U, 0xbd54e72c3cdc9b08U, 0x3c0ac3d03cb1d590U, 0xbdd9c189be0d485bU,
  0x3df8867a3e2c7ed1U, 0x3e069901bdf819e6U, 0x3e2079efbdef0927U, 0xbe27eb71bddcafc1U,
  0x3e2ffa01bdf2403fU, 0x3d1f5db8bd72d56cU, 0xbc9bec583db79a12U, 0x3d7eec2cbe1574b2U,
  0xbde90a823cb5cc30U, 0xbd66f9e8be26088dU, 0xbe1da62d3bbdedc0U, 0x3e063e7b3da2a63aU,
  0xbe06b38b3e293053U, 0xbe31c3673cb39100U, 0x3c2cd9e0bdc83577U, 0xbdcf18b3bdfa5510U,
  0x3d7f39fcbe168971U, 0x3e0e661bbe07ba2aU, 0x3dfb9c76bd8bb795U, 0x3e27e125bca0d620U,
  0x3dc0d9563c310d00U, 0xbd5c1c673df966f2U, 0xbd0dc0023d557503U, 0x3e274dc53e3b0414U,
  0xbd5dfe903e0f6ae5U, 0xbcad4430be75772cU, 0xbd3c78043d88d2a0U, 0xbdd1993bbe26a4c9U,
  0x3e47b3a13cd465f0U, 0xbe30b3bebd0b393cU, 0x3e69f1583df8f306U, 0x3d1dd7a63e3054f1U,
  0x3e8107f4be02b37cU, 0x3d8326b03d1cfd00U, 0xbd2c95623e26f546U, 0x3e0a8927bcf42b70U,
  0x3e3411373db8b947U, 0x3e2f6284bda938a0U, 0x3e27538bbddd0c39U, 0xbe05e01dbda9673eU,
  0x3d93b1e23e4471b6U, 0x3cc97148bc52ab90U, 0x3e258beebe0ca21aU, 0xbdbd11ec3d0d8ba0U,
  0xbcc487523d68199cU, 0xbdec230ebe29173cU, 0xbde63ac63c7680a5U, 0x3dfc7d7b3e0b5732U,
  0x3e3e394ebe77b7f5U, 0x3e2d91afbd2f727bU, 0x3d7d60b83df6c64bU, 0xbdd97dd93bf12ee0U,
  0x3e0cf673bdd15e20U, 0x3e145c64bdf9f54aU, 0xbdf8c95f3e470ed4U, 0xbdd1c3b03de028f3U,
  0x3e2343edbce92fa0U, 0x3e0320523e290f37U, 0x3e2d1b1e3e54d9f4U, 0x3e166475bc64057fU,
  0xbe1ff67f3df2288eU, 0x3e10dbbcbd3664e0U, 0xbdadea7a3e1e6ac3U, 0xbdf83a543dbadee6U,
  0xbdc1eced3b586692U, 0xbd1d19493e6a29c5U, 0xbd3ad1a83e16f3a3U, 0x3e1bba8f3e4fe40bU,
  0x3c6a53c03c605f6dU, 0x3da1553f3da17f16U, 0xbd5e36443e62a6bbU, 0x3cea40c0bd663a87U,
  0xbda4619e3dba7d05U, 0x3e9cd573bbbce20cU, 0xbd2012d4bda0fd23U, 0x3db233723e6c3f69U,
  0x3dce54b1be20c4f9U, 0x3d80ca0fbe30601aU, 0x3e2e388fbd86b753U, 0x3ea4800ebe0f16f6U,
  0xbdf833ef3d91804aU, 0x3e0d594e3dba3b5aU, 0x3d30867f3e04bf49U, 0x3e0da6903e5950e6U,
  0xbe33fe9d3d186a80U, 0xbe24f21f3cbf5b3eU, 0x3c1bbff4bd50978eU, 0xbd1aee483e02fb2fU,
  0x3d9a8a52bdf639c1U, 0x3c8fa0f03df73d73U, 0x3e0e9b5b3e206e6bU, 0xbce05bdcbd3f9552U,
  0xbe32a764baa12080U, 0xbd2d6e893e0315afU, 0x3e0183263dd35c1eU, 0x3e1f9a033d0f1276U,
  0x3e28034abdfc2887U, 0x3d1ba1c03e39d293U, 0xbda093663d782715U, 0x3e21fe503dfac452U,
  0x3d801bd6bdffb50dU, 0xbc536eb1bdca71b1U, 0xbde5d4473dde25c7U, 0xbccf22843ca9e5c7U,
  0xbcd3f818bc832f38U, 0xbe05c802be258987U, 0xbdbeaf70bd1bf8ceU, 0x3de2434abdd52261U,
  0xbe01a8a6bdf291c9U, 0xbe00ef4e3e04f1c7U, 0xbe0ab91cbdf84866U, 0xbd84fb83be1643a4U,
  0xbdc79fd8bce83c81U, 0xbdd36bd33b2d1933U, 0x3aa26a3ebdcb6aa6U, 0x3d1c612e3de856bdU,
  0x3e428dd83d84d16fU, 0x3e352f663d9e943eU, 0x3e14798dbe0e9f0dU, 0x3e249cb73e17609bU,
  0xbe127342be09c76aU, 0xbda3c593bd717ba1U, 0x3d9f6c0f3d117309U, 0x3e11830bbe2e5cc4U,
  0xbe3163373ddf3c91U, 0x3df3f3dcbb632945U, 0xbd9550183e1aacc9U, 0x3cc40616bd911115U,
  0xbe2891493dfb1d7eU, 0xbde238053dcc147eU, 0xbe1c153f3de58bc9U, 0x3d4d6b0cbcd80ec8U,
  0xbd979d66be092788U, 0xbafa746a3e24ad9aU, 0x3e13bf51bd2c8749U, 0xbb6af840bdea0f04U,
  0xbd882ea7bd2d5a96U, 0xbe05236b3af3c694U, 0xbddeb7be3d8b1b63U, 0xbc8ee6b8bdb56342U,
  0xbe10f2a9bd1eba04U, 0x3cecb2723d3a90f4U, 0xbe2784d73dd3459bU, 0x3e1536bcbda05b0bU,
  0x3e36d2c6be0bd8b4U, 0x3e32b39a3cb694a8U, 0xbc8f2793bdee90ffU, 0xbe2541073d5bfa12U,
  0xbcd342183da9ad42U, 0x3e0be19e3e12f9c8U, 0x3e47dd103d86633dU, 0xbdaa503abc9714efU,
  0x3e115672bda05807U, 0xbd8ae8a4be74a4e8U, 0xbcb22340bc704391U, 0xbe069e103cc7bc15U,
  0xbe8b86bb3daa7e56U, 0xbc3c0d863ceefda0U, 0xbdca683d3d188bf4U, 0xbda8b745be78d969U,
  0xbe298decbdbc8accU, 0x3d5b17ccbe3d170aU, 0xbdaa44a2bd1be2e0U, 0x3e1e1ed53e01dca5U,
  0xbd53f73c3dbb7c8eU, 0xbb9694a1beb13b88U, 0x3df38a6abc952a03U, 0x3d5f4dfabc7f29c3U,
  0x3cbe46b83da4fbb6U, 0x3d5b0860bdc96b00U, 0xbe3c38f93cc32baeU, 0x3def686a3e287866U,
  0xbc0570c1be02d34eU, 0xbd17a160be0554d5U, 0x3d5439743d763724U, 0x3df4fd7bbe4461d8U,
  0xbe0753f83dea7d99U, 0xbb76a0aabd1e19e3U, 0xbda75b5fbdb11bf6U, 0x3dc80892bd047a8dU,
  0xbea1bf2b3e2911bcU, 0x3d467fac3d10e65bU, 0xbbfd0b06be3e2b18U, 0x3dbbc62d3d0e0413U,
  0x3e0d8527bdf377c0U, 0x3e115b403db12714U, 0x3d0048e6be19a9e0U, 0x3d151c37be53921fU,
  0xbd963784be1e7e5aU, 0x3e337cbabe0a5176U, 0x3e230bcf3dd45d26U, 0xbe4ece793e1fb5aeU,
  0x3dc45b8fbe4d2a3dU, 0x3e1733d93c0c3176U, 0x3d81b408bd98f5a5U, 0xbdae3e27be658c71U,
  0xbc267cb03d144640U, 0xbe6a25e63e25b811U, 0x3be9fcca3db5df0dU, 0xbe12c5a23e1acc86U,
  0x3cb225c4bd8d8125U, 0x3dddb36bbdd82ff9U, 0x3e2fd1dd3ccd8cebU, 0x3e30ae633dc2590eU,
  0xbd6c1d723d1d9afcU, 0xbd2b4c6d3caec5d9U, 0xbdb6a2a6bd618370U, 0x3e2228d53dc51978U,
  0xbd1a412d3d641af8U, 0xbe88dae73de64336U, 0x3cf06fe23e018672U, 0x3d8691eabc89368cU,
  0x3e1760d7bd0925ecU, 0x3cfb228ebdc90d76U, 0xbbab28f23dc9d262U, 0x3dffbe32be347ca9U,
  0x3d9e65133e1eca31U, 0xbdd92f4c3da5c7a9U, 0x3d9d56cabdb7ea81U, 0x3d7fb17abacafde2U,
  0xbe345c733e196343U, 0xbddd87513d3a2f98U, 0x3d8dc230be0c77a4U, 0x3dfd8a783e0e22b8U,
  0xbe239fe93d0527e4U, 0x3e0426b53e0aa712U, 0x3ca57058bd7e2187U, 0xbd1e4954bd8d5e7aU,
  0x3cd81f20bdfff724U, 0xbe0d351ebd6cec70U, 0xbe2b233b3d4b247cU, 0x3ded60bf3d65defbU,
  0x3a0a1e003dd85b17U, 0x3d39fd643dd2e982U, 0x3e0bb1cb3e129220U, 0x3e00d723bd1b8a7fU,
  0x3df95d32bd448d74U, 0x3d68ae17bd89b67dU, 0xbe3271213d3c1161U, 0x3d978969be05c215U,
  0xbdf178ecbd235e48U, 0xbda33735bc420b88U, 0x3df969ba3d5f2ff9U, 0xbd1e1c8dbe18dacaU,
  0x3df28ac83d90381cU, 0x3c40cb9a3d39b4aeU, 0x3e17f263bd6fb276U, 0x3dd66b80bdc3358aU,
  0xbe3523943da7fb7aU, 0xbd3da085be06527eU, 0xbd30ff4d3e162637U, 0xbe182a513db7824fU,
  0x3e1156553d4305ccU, 0x3db39c093c282634U, 0x3deddea73df13ceaU, 0xbc88a2ea3dbd00feU,
  0xbdaacd673da83d53U, 0x3daa1a0aba2e8e60U, 0xbc9a7b58bdb3fd76U, 0x3b969ee03d007f36U,
  0x3d4a4ef0bde2e006U, 0xbe0281d9bcd0b82bU, 0xbe37925b3dae3b9bU, 0xbe045566bd1cddbbU,
  0xbe33c64bbde45fc4U, 0x3c039a09bd87122dU, 0x3dee5e6ebe18a69cU, 0xbd7724ee3e2adc2aU,
  0x3c644210be148c97U, 0xbde6bb01bcd07145U, 0x3e11c3b8be187190U, 0x3e1c1d333c0a8d34U,
  0x3d8abd6cbdd7accaU, 0x3d8d8c223d7b3768U, 0xbdb0ed073da1326aU, 0xbdf296edbe364863U,
  0xbd1f6f2c3d3bf6ccU, 0x3ccd8b183d701990U, 0xbe119782be027fbfU, 0x3c404390bdd8421bU,
  0xbde415df3b7a66c0U, 0xbde3aadb3cac2798U, 0xbb0bd340be13a470U, 0xbe0ef5f2be1145fcU,
  0x3c5f88303e0651c1U, 0x3e22320fbc9cc320U, 0x3ceaf4b8bd9e1517U, 0x3e221155bdcda825U,
  0x3d92613cbe2e693bU, 0x3e242ef5be33ae8bU, 0xbe2bac0ebd525600U, 0x3db7728ebde49324U,
  0xbe26ffff3d95829cU, 0xbe2fd6dc3e178079U, 0xbb3c2e80bde771b7U, 0x3e2ba101bdf993c2U,
  0x3db15c363cb3a778U, 0x3de08a6ebdde4383U, 0xbdb536833e1a7b57U, 0xbdc40aa3bdc2ec75U,
  0xbe0474bb3d1fe330U, 0x3e24c53b3d7484f0U, 0xbcf2fa80bd8d6abdU, 0xba615b00bdb70cc3U,
  0x3aca6b80be284cc4U, 0xba4c7f00be1c7a92U, 0x3e01e787be31257fU, 0x3e01e6fb3ddbd1aeU,
  0xbd340900be078722U, 0x3e099bd13d7ffe84U, 0x3e2b273bbdcc0bb3U, 0xbe1138a6bd59d018U,
  0x3e0e1275bdf4286aU, 0xbcdd1e30bc84a370U, 0xbd8b36893d9a8d86U, 0xbdb98d443e12575bU,
  0xbda2b9acbdcafd09U, 0xbda65bc8bdf0df7dU, 0xbe128f7c3e0acbafU, 0xbe2648ca3d78fdc8U,
  0x3e0c077fbe02078aU, 0xbd667f163cbefb90U, 0x3c0cc550be101be7U, 0xbd3c7b983d684024U,
  0x3ca97e303d79289cU, 0xbde21c6cbe289002U, 0xbe2e53ce3c4716b0U, 0x3dbcc206bddf5014U,
  0x3dbb12de3d3617b4U, 0x3d554d003d988f56U, 0x3e25bc05bd985f42U, 0x3e2b7a2f3d81236eU,
  0xbe196165bdbb3ae1U, 0x3d7db37c3e019bdfU, 0x3dfb5536bd00c378U, 0x3d8e28e2bd635250U,
  0xbe104e57bd9ab3caU, 0xbd3bb754bdbf8219U, 0xbdadf218bd5ed522U, 0xbdfad6003ce27508U,
  0x3e0f4e473cf03a10U, 0xbcd82222bdd0db8cU, 0x3d0e81babe1331d1U, 0xbd234ba03e3b1058U,
  0xbdf9ed19bdfefce2U, 0x3d95a2463a1e287fU, 0xbe293b6d3d931384U, 0x3cc485adbdf0bc06U,
  0xbdb13e33bcfd5d68U, 0x3e0a4189bd779a8eU, 0x3b43294f3d316134U, 0x3e01ccb6be19ce2fU,
  0xbd917391bde2dd44U, 0xbe3105ffbdb48fdaU, 0xbe2721b43c94274aU, 0x3c918418be1a52c9U,
  0xbc4fa050be191a63U, 0x391204ef3e12771cU, 0xbdbb7f9fbe13b607U, 0x3c5ffac2bced1384U,
  0xbbafc2a03d8381c1U, 0x3de5bcd6be20c87cU, 0xbda8c900bd5f1935U, 0xbdd55ad9bc804b0dU,
  0xbe25bdd23c555420U, 0xbdf63c46be044310U, 0x3e15c342be0fd24eU, 0xbd3754923b820299U,
  0xbcad844cbe0df1caU, 0xbdcde5903d35910eU, 0x3e1be6e0bd4afabbU, 0x3d95be803c76f5f2U,
  0x3e13d321bc5d1d26U, 0xbdb176f93e16fc8bU, 0x3db5d5043e0999a8U, 0xbcb889a8bdcbd282U,
  0xbd5f10683e17a67bU, 0x3d9d19eabc4d0527U, 0xbdfdf2eb3e2be732U, 0xbd6723b4bcc04652U,
  0x3d1d8a24bd53869dU, 0xbe334f743dbf5478U, 0x3e3b8c4b3dee86c6U, 0x3c4eee143dd283d6U,
  0xbe4d54413de60086U, 0x3c2e4f07bdf0be08U, 0x3d8896403e0b510dU, 0x3d6c7bd43dbeb2cdU,
  0x3dbf536abc87087cU, 0xbd8e500bbe07fa87U, 0x3dceb130bd5fa203U, 0x3d8acd32bd2575f8U,
  0x3daffd133cd916d1U, 0x3e15b1c73e1a998dU, 0x3e267d61bc8c1f89U, 0x3d75062cbdfef47eU,
  0xbd70487fbd2288d0U, 0xbd8ec757be001db3U, 0x3deaf0373e28e4a6U, 0xbe166327bd2b523eU,
  0xbe0d6df4bd86d0cbU, 0x3cd6c186bd78dd64U, 0xbe1c1c9abd29af77U, 0x3e07d6d43e3e499eU,
  0xbd87949fbe044a70U, 0xbd4f475dbdcae2faU, 0xbe380d1b3d234843U, 0xbb6ffc403e2e1522U,
  0x3c21c2ea3dc32a1dU, 0x3d6904f03e1b32ffU, 0xbdbfc338bd32c412U, 0x3dcccd673c10d776U,
  0x3e0c45653dd13cfaU, 0x3e172175be02dbf5U, 0xbd735276be15aed0U, 0xbd4cd6373dffaaebU,
  0x3dbce3d0bd620742U, 0x3e1b776d3c7d2085U, 0x3ddd3819bc350619U, 0xbd04f35c3ce08778U,
  0x3dcfdcc6bce3cb89U, 0x3c94c57c3d57bdd4U, 0x3e156e2b3e098e54U, 0xbe314ad53e018cf0U,
  0x3e28b741be037cb3U, 0xbe0c07c6bd1901bcU, 0xbe0badfa3d8cff9dU, 0x3df0544e3cebd2bbU,
  0xbe21849e3ddbed6aU, 0xbd93b588be095a7cU, 0x3de50f643e31bf2fU, 0x3d924d0f3e1774aaU,
  0xbd9576e6be3278a9U, 0x3d1c15543d147beeU, 0x3e2f35843d41403dU, 0x3db3d92a3daa3d06U,
  0x3e2355c2bd0e2599U, 0xbe3199443dafee22U, 0x3e245374bc814787U, 0xbded3b7abe2b4ffcU,
  0xbcae50ee3e185427U, 0xbe39dd95bcc5c7e9U, 0xbe08fe7a3e04e4d7U, 0xbe3029323d150200U,
  0x3e17fb9dbd3f710dU, 0xbc3a38f0bdff1a7eU, 0x3d6555b73d0660c0U, 0x3c75fef7bdf67d90U,
  0x3c81a68cbe29010dU, 0x3dd3ea3ebd6db73bU, 0x3e250cadbd691cd4U, 0xbdb47d953ddbcc32U,
  0x3e166035bdafeea5U, 0xbdfda61d3b38e06fU, 0xbe298fb0bd8757eeU, 0xbbd1e3a0be10f8edU,
  0x3d11a742baad5685U, 0x3d825630bd3df8a1U, 0xbdea9c3c3da3b3feU, 0x3e171858bdfee692U,
  0x3dedab083db6de2aU, 0xbb8317f7bdf47aa5U, 0xbdf55af03d89c7ddU, 0x3d9acfe0bcf5a6deU,
  0x3d513d1c3e2f54ebU, 0x3e2bca793d5f9704U, 0x3e223cbe3e1a3725U, 0x3d52c58a3d09b60dU,
  0x3dd6d9c6bdd059c5U, 0xbdeec7cd3e29c33dU, 0xbdeb5a6fbde3b830U, 0x3e0abe0b3c19778bU,
  0xbd58b0f83e3192c9U, 0xbdb903c7be01eacfU, 0x3d7733a0bc96d78fU, 0x3d95ca25bc7275bcU,
  0x3e0937dbbe0374cdU, 0xbe28fc4f3e2da807U, 0xbdebaf6f3e0f7d2fU, 0x3d8c9b8d3d9835adU,
  0xbe1b14dbbe3352ffU, 0xbe180b9f3d9ee244U, 0x3b3d2280bc1d3f41U, 0x3d38eda4be2f9648U,
  0xbd817d7abd7a2f90U, 0x3d4072c4bd6e8368U, 0xbdbbb34f3ce10c05U, 0x3d8c6fb1bdc5867dU,
  0x3e2350f9be022c14U, 0x3cad01e83e0b990bU, 0x3e2e2a9fbe11471bU, 0x3c07eee03e30dc2aU,
  0xbdee40363df1bebeU, 0x3d4ec463bbe15780U, 0x3cfb9a903e1c0964U, 0xbd283a66bdb261baU,
  0xbcb421a43e006f96U, 0x3e0d9d6d3ae822ccU, 0x3e0042123d13330dU, 0x3dcc27573e1e07a5U,
  0xbde7ee773de03569U, 0xbe091028bdf87870U, 0x3af2b9803caee086U, 0x3e04fa53bda47589U,
  0xbe101c7d3c8d43a8U, 0xbd2f07f73c50771cU, 0xbde8e8343cbf718cU, 0x3d2d00a13ddb060aU,
  0xbe33b0be3c1b633eU, 0x3d2d23a53e30cc07U, 0x3b4231bb3e102455U, 0x3cea5d88bdd6804aU,
  0x3bbcc0113e1685c2U, 0x3d9aa959be2d4bafU, 0xbe2794ddbd94325cU, 0xbe0966aa3cb02165U,
  0xbe161867bdddab09U, 0xbd038d6a3e16212aU, 0x3e28e2573cf5a126U, 0xbc8dd3883dcaefebU,
  0x3d8870973d04b6d6U, 0xbe082ab2be030535U, 0x3cd52d58bda1f930U, 0x3e1859ec3de53f1dU,
  0x3dc651ec3e0b42e9U, 0xbe2efc37bd199620U, 0x3e28c411be31f84dU, 0xbe211289bda5abb7U,
  0x3d97030f3d7e6d72U, 0xbe15c1123ded7532U, 0x3ddd804dbd4801a0U, 0x3e1e4ea83e0a9e9dU,
  0xbdcc0d3fbc48ec60U, 0x3e0463f63c6c15efU, 0x3e5b72f23ddaebedU, 0xbd879363bdee3cbdU,
  0x3df533dd3d7c1fc1U, 0x3e132ff1be941d80U, 0x3de543123e074752U, 0x3e288753bbfa13a7U,
  0xbe406f80be0a72caU, 0x3ce1cd8abd860e80U, 0xbd91e3033d26b6f0U, 0xbe29988abe3638d3U,
  0xbe2db5203db95eeeU, 0xbe33c2f3bda794c1U, 0x3d88a0533dc3f63fU, 0x3e19781ebde82b38U,
  0xbe0ae0b0bde54c4eU, 0x3def1824be153249U, 0xbcb288a8be29f70fU, 0x3d7faa8f3ce245f8U,
  0xbdc567d73d47260dU, 0xbdedbb163e0f5b0dU, 0xbb3129e53d42145eU, 0xbe12719ebe0ad520U,
  0xbe07950b3e317cd9U, 0xbe8ebb2fbd8f97dbU, 0xbd8c81a6be4f2933U, 0x3dfc413fbdee9da8U,
  0xbcd3cfbabd99b08eU, 0x3da43b6cbe8fdbe2U, 0xbcb11a693d3b46f4U, 0xbe150224bad36f06U,
  0xbec7b9113df87245U, 0xbdcfefcabdb12fcfU, 0xbcbef706be848938U, 0xbd45154c3d64d35eU,
  0x3e12dcce3d0c5d94U, 0x3cb51a703bd3b08aU, 0x3e2ff4593cb819c1U, 0xbdabccd3bd1bace0U,
  0xbb16b3003d56d6a0U, 0x3db959c7bd0412ccU, 0x3e7ac7d3bd6acc46U, 0xbe65447bbdc1bf1fU,
  0x3d3c40d1be25d6d3U, 0x3e53586ebd4e2e15U, 0x3e178895bdd6967dU, 0x3d4c1f68bd8f5000U,
  0xbdc7abb0be5f7b28U, 0xbd40ec413c2c9f0fU, 0x3e1ed712bcd007a5U, 0x3ddb81823d67ffd8U,
  0xbd29cac0be52ccceU, 0x3d2a3d95bc8ceb10U, 0x3e0f4539be855a04U, 0x3deee7213d24f7b7U,
  0xbe2e7ad3bc60cb80U, 0x3cffa7aebd9fdf03U, 0xbd15af26bc705c21U, 0x3dda6742bd8f9546U,
  0xbd40a1bf3e0d07beU, 0xbe9270bc3dbad2beU, 0xbe1be7953e37799aU, 0xbb4933233b17b9f8U,
  0x3df32542bcc4cd30U, 0xbcc67b203d57509dU, 0x3d8e3c113d85ce2fU, 0x3e090a21be68d47cU,
  0x3da18631be13f6ffU, 0x3dd8a5263e939c94U, 0xbe27983c3de8ff2fU, 0xbe5132d13e635cbfU,
  0x3cbaf641be1086e6U, 0x3dc79420bdb58511U, 0x3cdabe44be2a62aaU, 0xbe1df5413db82bacU,
  0xbe27d3a83e2c7b0bU, 0xbe2ab4e9bd67a0eaU, 0xbdee2395bdff54beU, 0x3dea05d33e30e921U,
  0x3e256c7b3d981c33U, 0xbe8e3fdb3d4c3db2U, 0x3e05e0073cc35be3U, 0x3cf24150bdcf065bU,
  0x3d852632be1e9310U, 0xbe1678543de276d2U, 0xbcec23d93e070cfcU, 0xbdd319c93d638ec3U,
  0xbd0162153d96a63eU, 0x3e28b2fe3ec9f602U, 0xbe167f043dbd56afU, 0xbe5e214d3ca3fba8U,
  0xbc0282123e8a513bU, 0xbd7bb9683e86d686U, 0x3d89afcabd8cf4c3U, 0x3e069ef3be7ee082U,
  0x3dd8d399bd9d7961U, 0x3e2e472d3e060e67U, 0xbdf20989bcefee82U, 0x3cb8803c3e0a81adU,
  0xbdbe3c72bd1d3878U, 0xbe236bb13e20707eU, 0xbe6a62d8be7db52dU, 0x3e0323ebbb92f523U,
  0x3dd618b6bdf6b027U, 0xbe0adaffbd112cb9U, 0x3e071c273e0c76cfU, 0x3cf2b27a3da56fbdU,
  0x3db46537bc25f028U, 0xbc569d29bbcc1e0aU, 0x3d4bae803e6d81e4U, 0x3e185655be077bc7U,
  0x3e086e593d7a34d8U, 0x3e5b2f42bd5fb3deU, 0x3d8e301dbdb11e4eU, 0x3d8e5c92bdadd507U,
  0x3d729e2b3e26b537U, 0xbe9a6d3f3e517808U, 0x3ded454abd0ece0eU, 0x3b8c3438bdb02544U,
  0x3df1f4713c1fa720U, 0x3de5a7983ddd85e3U, 0xbe7dddfe3babee56U, 0x3d70153dbdd87a36U,
  0x3e70a6503dde0c9cU, 0x3c7448373db41b52U, 0x3e3da33cbd28f253U, 0xbe23dad0bda3f4b6U,
  0x3dac1fb23e0a9109U, 0xbe33839cbe1be236U, 0xbcb13239bdc8e4a2U, 0xbdedc0d03de06a0fU,
  0x3dceae963dc0a801U, 0xbe0e398f3d602bffU, 0x3d9f0f5ebdc32495U, 0x3dd3ebc93df37f06U,
  0x3c1eda85bd8283ecU, 0x3e1e2c73bdff4a52U, 0xbbd533333e299f4fU, 0xbc32f0193d6a8ccfU,
  0xbd8b25fabc19d240U, 0x3d9463643e1fc78bU, 0xbc0d65db3b064cc9U, 0xbd91e149bc9f3710U,
  0xbe0a0c453db45d15U, 0xbe2f2e323eabec70U, 0xbdf76fd23e9527d1U, 0x3e531aa0be188e6cU,
  0x3c6f59d0be51af25U, 0xbd4e00f43e21e3d9U, 0x3db774fe3e808e8bU, 0x3d73d4843e283f06U,
  0x3e09d3723da4d47eU, 0x3e867c8d3ea6767eU, 0x3d43deb13c581ad3U, 0xbd2429953d4788abU,
  0x3d0264f73ea6fd4bU, 0x3d4451dd3e86017eU, 0xbd3dc1713dad0c07U, 0xbd3b2b753d0548efU,
  0x3e71ed8bbd4c28b2U, 0xbdd7b0a23e32cc39U, 0x3e1de73f3e6e3040U, 0x3e1363a9be1f3fcaU,
  0xbe5fb08fbbae8240U, 0xbdbd6c8d3e24ac73U, 0xbe3c227ebe12a1cbU, 0x3df1c93cbd070a82U,
  0xbd363ee8bdcddd92U, 0x3df40211bbd6b6c0U, 0xbe69e906bd07dc10U, 0xbdf8c7e1be708d1bU,
  0x3d5188793e3b93b2U, 0xbdd907e1be4e8d64U, 0xbc191ce03e381c55U, 0xbdb99e1b3d760359U,
  0xbdd70202bd902bb9U, 0xbccdc947be8214c4U, 0x3e0ceaad3d2a67d9U, 0xbe0892b8bd4f7079U,
  0x3e29790abc3a8503U, 0x3be2f53b3e5ae74eU, 0xbda7d4d93d371f46U, 0xbbfcb2d8be46f48bU,
  0x3e1203bdbe14daefU, 0x3e4b03a2bc56cfc1U, 0xbe1211b53e3a2ec9U, 0xbe2bfbe33dcfcf3eU,
  0x3dd05a443cbeb32eU, 0x3ea1a2d23da5c8eeU, 0x3aab744ebe9c809fU, 0xbe1d5dfcbe109b2fU,
  0x3df71d163d07a13cU, 0xbc868aaabe264353U, 0x3dafdbc8bdcabd78U, 0xbe2e314abb071c81U,
  0x3e21c8e53cae20b8U, 0xbd43f8f43e2c945eU, 0x3c55f610bd1da0c4U, 0xbbf54f74bdaa90bfU,
  0x3e179c9b3ded5ac6U, 0xbe03a915be176017U, 0xbd827bc8be1cd4c5U, 0xbd419b68bd7937f7U,
  0xbe23f7c93dafc53aU, 0xbe11ba0f3ce3850cU, 0x3d92ac023d98e51cU, 0xbdb604393d273ebcU,
  0xbd2a9db8bd0a3bb0U, 0x3df38c5dbe065f81U, 0xbdbcffe4bdbd1edbU, 0xbdccc4f6bd573bc6U,
  0xbd5553943d70cb5fU, 0xbe343dd53de04ae2U, 0x3c4191a3bc98fa6cU, 0x3d9646963da78684U,
  0x3e056961bd287c5cU, 0x3d884463be04dfc6U, 0xbb60997bbe18a78eU, 0x3d687185bd9eff6eU,
  0x3df16a5b3de6ef4fU, 0x3cfb09403c039845U, 0x3cd7d8e2bdecd577U, 0xbe037682bd9e203aU,
  0xbb16db1fbd83c88fU, 0x3e1abac73c16e80eU, 0x3e16e347bd9a6c62U, 0xbcd30a53be05b508U,
  0x3b892bbb3d91425eU, 0x3dee39efbc6bc959U, 0x3e1abdc0bcaf28fdU, 0x3e2870c73c37893eU,
  0x3de58bea3bd5df40U, 0xbdcd314b3dd420f5U, 0xbe3734973db0611eU, 0x3d87526f3ccc0314U,
  0xbe0c5dccbe016163U, 0x3e235115be21bfc6U, 0x3e2fb7133d814c52U, 0x3df301f2bcafd320U,
  0xbc402280bd38368cU, 0xbca81c51bd1f4201U, 0x3e22341dbd9c9ba0U, 0xbd818897bdcd0d9cU,
  0xbd42c40ebdf3bf56U, 0x3c84ac87bd51d29dU, 0xbdeaaf043d9724aeU, 0x3d8d51feb8d3e29dU,
  0x3e29fa0cbd58b22aU, 0xbe1686f93cc3c576U, 0xbe0efff73dfb14b6U, 0xbdbf3eb2be2d8399U,
  0xbdf2327d3d30c1a4U, 0x3caa14763d0a2358U, 0xbe1044173d9fbeedU, 0x3da402a6bd118ce5U,
  0xbe0f59a0bde41535U, 0xbe29d3823deb4962U, 0xbd302b853d212598U, 0xbdbdf5a8bd6d72edU,
  0x3e09ee9fbdba43c5U, 0x3d0546f83b85af4eU, 0x3e1335b9bde07248U, 0x3e09d4bc3e2cc8f4U,
  0x3d8cfdc6bd9afab9U, 0xbd9bd6b0bceddf50U, 0xbcfc06a8bca5af48U, 0xbd97b3223e00a50cU,
  0xbcdf97043e152a15U, 0xbd162a9c3c8fd3d1U, 0xbd749f30be2d8107U, 0xbdab5fc73dd87076U,
  0xbc64d9f0be16a3dcU, 0xbd618a72ba981c88U, 0xbe0a1b70be2b9f98U, 0xbd5469a7bd6d33ceU,
  0x3d215ff8bdcea438U, 0x3cb797303ddc1a02U, 0x3e1e8f6d3de6ec98U, 0xbdbb0737bd007785U,
  0x3d721b8c3d235b44U, 0x3e2efa6c3dc79115U, 0x3d9c1498bd88904fU, 0x3e0a741a3c83b32aU,
  0xbe133f1abc4b5bddU, 0x3dfcf8383dbd0b39U, 0x3da655a5bda9227aU, 0x3e28242fbd6a4337U,
  0xbd93560bbe0d93c5U, 0xbdc4209abe15414aU, 0xbe0cd676bdfaad94U, 0xbe237f823d305513U,
  0xbe2b00a93e09fb47U, 0xbd6149083e061f18U, 0x3d1e16aa3ccce065U, 0xbdf47a0e3d5972f5U,
  0x3db0f83e3c412f10U, 0x3d9466b1bd762ebcU, 0x3d4581f63d7e9788U, 0x3dd1303abdeedddeU,
  0x3e2c796dbcd9f334U, 0x3d5475c3be1b466bU, 0xbdeee0133dea4097U, 0x3e081401bdef2fefU,
  0x3e19e81f3d3f7c3eU, 0xbe230145bdf46ddbU, 0x3ba8c1b43d343dbeU, 0x3caaf7e0bcf3744aU,
  0x3cc19a523c799dd6U, 0x3d8e16423c3b0ca7U, 0x3e00dd8dbe25e939U, 0x3d93af953b8c28b8U,
  0xbc1f1900bbb8dc80U, 0x3e0fe8f6be33d81dU, 0x3d9e24cabdcf4cf6U, 0xbd6557f6bdd057e4U,
  0xbc0a43e1bc2f0d2fU, 0x3d34c3fcbdad9089U, 0x3dbbabc7bdf774aeU, 0xbe31d6e73dac734dU,
  0xbc811088be0cc6ecU, 0xbd5e2a1abe07e94aU, 0xbe1b81babb890f00U, 0x3da2ca763d880036U,
  0x3df2192ebd861510U, 0x3ddfb5d6bdd37177U, 0x3ddf605e3dddc9c2U, 0x3db34456bc596b30U,
  0x3e254d03bd9efdaaU, 0xbc82b7a8be172fc7U, 0x3e2f0fd73db299e6U, 0xbde9ba3fbd83faddU,
  0xbd86e3eabd324a28U, 0x3e335225bc8e72e8U, 0xbd7dabf03d2f2f74U, 0xbd986fe63e1a1d79U,
  0xbd8a72ab3da759feU, 0x3db165aa3d99e18eU, 0xbe11a437bdce5a0cU, 0xbe15daa7bd3191c4U,
  0x3d5d6fc83dd903ceU, 0x3d8d7a96bdb68768U, 0x3e19e4c7be30b007U, 0x3e2dbf1dbc5c2740U,
  0xbe1f2cd7bdab23b2U, 0x3da2699e3b411e00U, 0xbc6da450bd80dc03U, 0x3dc7b9523d854a02U,
  0x3e165a513d8170caU, 0xbe0373c63d94f634U, 0x3d9c7f56bdb52a95U, 0x3dbf17363e16a059U,
  0x3e258ebfbe030cbcU, 0xbe060a5ebd7009ecU, 0xbc45d7103d84bb82U, 0x3d630cf8be1c5581U,
  0x3d1019fc3cf3a588U, 0xbe2caee7be1fff72U, 0xbdbcd7e5bdca35ceU, 0xbded9614be32b166U,
  0xbe1ef56cbe2f6acbU, 0x3e17014fbd570a90U, 0x3d63f0203e0b35cfU, 0x3e07ffc53c320830U,
  0xbe297b03bdc35acaU, 0xbe340905bd90fd0dU, 0xbdd420acbe09b466U, 0xbd08ad683d98c86aU,
  0x3d8dc638bdb86abcU, 0x3e06509fbe074b65U, 0xbe0703ca3cdc65b8U, 0xbe2995fe3e156ed5U,
  0x3dee073e3e261eedU, 0x3cbd4e58be33c42aU, 0x3dcb4b463dcc0dfaU, 0x3e323b7dbe01f44aU,
  0xbda3cbe03dedcad2U, 0xbe1a35c0be29f7eaU, 0xbe0ee6cf3c966de8U, 0x3dd912123c8b9230U,
  0xbd010698bde01ae9U, 0xbdf287223cf81bb0U, 0x3df971d63d7ff0d4U, 0xbe2d0980bd886785U,
  0x3da337b2bdc3b10eU, 0x3e01b368be2cd9d3U, 0xbd1254603de107f8U, 0xbbbcce40be2c8983U,
  0x3d4726773decacebU, 0x3e289ba53cee7200U, 0xbdcde4123d964cc2U, 0xbe274ababd79eaefU,
  0x3c8181d2bdb7383aU, 0xbe2acbd93c798720U, 0x3dc8c6aa3df2a726U, 0x3df44ba83df55b5aU,
  0xbae10e443d6914fcU, 0x3d2213903dcb762bU, 0x3cdcdb3e3e274e7eU, 0xbe14d5b83dbab04aU,
  0xbdf1349cbe1ae0d1U, 0xbd94aa743dff69a9U, 0xbcfcbec0be226f93U, 0x3d857a52bd7fe76eU,
  0x3d1f836c3cec3ba9U, 0x3e25e7d3bde130f5U, 0x3e2671e7bb66c9f9U, 0x3dd253723b28260fU,
  0xbe24346a3b3b0d40U, 0xbd4d25c93dbd49abU, 0xbe2b609b3e293bb6U, 0x3e1c33cc3e22f461U,
  0x3e029ad9be07f655U, 0x3beeb242bbb84260U, 0xbc7732f33e167ef0U, 0xbe21351c3e251157U,
  0x3dd1a425be0afceeU, 0x3ddd5bb53da4152bU, 0x3dc6bc7cbd0da0edU, 0x3e03c34fbe2e753aU,
  0xbdec1d29bd99cd7fU, 0xbe3ec1723cbd251bU, 0xbca770a63cc1b93dU, 0xbe0ab9ec3e0464ecU,
  0x3e020e17bdb0d82fU, 0xbdd5c1f43e1cf85dU, 0xbc9c4013bd7393d0U, 0x3dd95f9dbe06e371U,
  0x3dcd92e23dbd731dU, 0x3df3b729bd9b4df1U, 0x3d92a33c3da24cb1U, 0xbe057336bdc1ad63U,
  0x3e118857bcc322a8U, 0xbddbe405bde16699U, 0xbd90bc20b9c6c740U, 0x3d43df8c3e204ec2U,
  0x3d542f4fbe108886U, 0xbdfba54fbe0f230aU, 0xbdeb84d4bdb4e093U, 0xbe31fc8a3d6015d6U,
  0x3c77e95b3df657f6U, 0xbdef3b2bbd206623U, 0xbe193eeabdce4b89U, 0x3d6d37803dbca4aeU,
  0x3df278423dd81aa7U, 0x3de865a23e146733U, 0x3dea23813d8f8923U, 0x3e11226b3e001e53U,
  0x3d97d4fabdc2e26dU, 0xbd547ee0bdd4255eU, 0x3ca37828bdd32b64U, 0x3e1c3a7d3cd17dacU,
  0xbcac68f63dac0b56U, 0x3c1f4bc0bbd02a60U, 0xbe269dfc3e00bc69U, 0xbde2b061bdac62c4U,
  0x3e028fd9bdbc9409U, 0xbd9e0a1b3dbc34c2U, 0xbe2415663d834b92U, 0xbdfcd5c7be12b72dU,
  0xbe1f083a3e19a2d1U, 0xbdaa8f9f3e2a68d7U, 0x3c80e0703e3187ebU, 0xbcabd098bdc1d061U,
  0xbdd501503dc7088aU, 0x3c857b253c96181eU, 0x3db99956bbdf1c3aU, 0x3e12607f3d86ad92U,
  0x3d25b31cbe21fcd1U, 0xbd0907b4bdf59b84U, 0x3e1487f13d908eefU, 0xbe302a6e3d8b38b5U,
  0xbd4fe5943b9368e0U, 0xbe20860a3d54f8c8U, 0x3c7b2cd53dc81d20U, 0xbd263e923db02af9U,
  0xbe0b595a3e105a6eU, 0xbe20fd58bdfd8608U, 0x3e05d57c3d7f5a56U, 0xbdf75b373da9509aU,
  0x3d2ebb44be161943U, 0x3e1c6a3fbd6ef8a4U, 0xbe0eb57d3d2c2aeeU, 0xbe259dfcbd15f8e5U,
  0x3e0a9fc8bbeeafa0U, 0x3c147afc3e19e7cfU, 0xba46c38cbb45f80eU, 0x3d459c083dcce2f4U,
  0xbcf47448bdac9457U, 0xbe36262ebd9ed8e4U, 0x3c3aa5fabdf938fcU, 0x3db7de983e2cc503U,
  0xbc940eab3c78ec7dU, 0x3cba831a3d965945U, 0xbdbd0bef3e2a850bU, 0xbde3d8b5be0f9b3fU,
  0xbd9ea678bde8dc26U, 0xbe019bdd3be459b4U, 0xbdc8e92f3dba5551U, 0x3cddc598bd1a093bU,
  0xbd85068b3e10cf03U, 0xbdbec199bde2cf75U, 0x3d50a4b0bd2e6262U, 0x3ddc3aef3d03c9ecU,
  0xbcb76660be299606U, 0xbdfe835bbc2f43d2U, 0x3ca0653abcf52327U, 0x3e2a1ca33e27d763U,
  0xbdb33a37be254231U, 0x3d6d7da6bdb2b4b4U, 0x3c86d041bd2a6cf9U, 0x3d8717033d761761U,
  0x3e0bb045bd64c274U, 0xbdce90653d00806cU, 0xbde06236be0f22fbU, 0xbdd09a62bdc9f385U,
  0xbd1b44a93d273206U, 0x3cb412503e44b0fcU, 0x3e02c5813db2dc2dU, 0x3e165f6c3dcf92ccU,
  0x3e71679f3d8bce5eU, 0xbd984d38bdc8fba7U, 0x3dd3450ebd9f5887U, 0x3c0c6becbd4764b8U,
  0xbe468bca3cdcb900U, 0xbcf76f58bdbb452cU, 0xbda0c428be3dffd5U, 0xbe27c60fbdf6f122U,
  0xbca2cf003d1a1b74U, 0xbcaf5d793e2c46c3U, 0xbded8a8a3dd28e3cU, 0x3e4c64c3be94327eU,
  0xbe288ee4beae5e82U, 0xbb0f1c003d945310U, 0xbd484b383e1691d5U, 0xbde633ea3e929038U,
  0xbda80770bd98cc1cU, 0x3e6d804f3ee6fbffU, 0xbe1524c8be02413dU, 0xbe333ed63dc93bf8U,
  0xbe2ccc883db7cfedU, 0x3dd0af733e89657eU, 0x3de724cebd312e5fU, 0x3dc35a6e3c793041U,
  0x3ec43bcebd95af7fU, 0x3e1a811d3e66d86cU, 0xbe1fee1b3e9cb3f1U, 0x3e0cbb5e3d7d5df4U,
  0xbe4ec8143dab31baU, 0x3d3b55203da2a9aaU, 0xbe5e453abc8f4c1dU, 0xbdb0e6a13dcc8560U,
  0xbd86cb6e3e2533b8U, 0x3dfa86e2bd7c0f4cU, 0x3e073f6e3d86be92U, 0xbd9bdf59be100770U,
  0xbe21e8a7bdc32559U, 0xbcaffee9bd14f9acU, 0x3d9301c43e2292adU, 0xbdbb05de3decb35aU,
  0xbd052af03d3a882aU, 0xbd50f5f0be9aa618U, 0xbd0823b93d34f7b4U, 0x3e02fa853e02fec1U,
  0x3dfba9503e255276U, 0x3d3a9f11bdd495e0U, 0x3e334b75bbfb69afU, 0x3e24a7f23abef9d5U,
  0x3d13e4273de6791eU, 0x3ddfe1803d93adbbU, 0xbdc148173d4d6934U, 0xbdfbc8c23e1ee21dU,
  0x3e0e4c9f3e168d6bU, 0x3e197483bdb7ddd2U, 0x3e02fdd8bea19cf3U, 0xbe0c5edabe0046deU,
  0x3db254823e347ba7U, 0xbe2fb76a3d8479f8U, 0xbdcef8323e233783U, 0x3e123861bdf76542U,
  0xbe2b394b3dfe2feaU, 0xbdb27905bd90dbfeU, 0xbe20db973ddb596eU, 0xbe0617863df2f4d2U,
  0xbdbc06e13d5216d8U, 0x3cab2000bdb3fd99U, 0x3dd9fc023decd2b2U, 0xbe05863d3ddcd002U,
  0xbe2fd74abb23b640U, 0xbd54ef7a3d76ea00U, 0x3cfbbfe8bc8026c0U, 0x3d94926a3cebe1d8U,
  0x3d422e303c819bc0U, 0xbd49cca43dfe308aU, 0xbe2654863dd745daU, 0xbddbe30cbd5c1df6U,
  0x3dc05186be1b95b0U, 0x3dcd69b2bdce9be0U, 0xbdefc341bc04bc60U, 0xbdf2d3ca3e2ff12bU,
  0x3cfe54f8bda594ffU, 0xbb8b6ae03d129ebcU, 0xbc674da0bd867705U, 0x3d6502183e20fd2bU,
  0x3e289419bd609ee6U, 0x3d5569a0bdc9ee47U, 0x3df594eebe07fd44U, 0x3da496e23d7de198U,
  0xbde298cf3dd11d3eU, 0xbd8fc987bdce1a30U, 0xbd8f7dfabd4c44f0U, 0xbe0a26f0be11c978U,
  0xbe1c05783df9683eU, 0xbdd1f23cbcdf6630U, 0x3d8e72eabdf6a5e5U, 0xbb6e79803d94cfccU,
  0x3e1aee893e19f7e3U, 0xbd898cdbbc714a30U, 0x3db3693ebd1e3948U, 0x3e0d1d893d9bcad6U,
  0x3e0a9e713e0f525bU, 0xbd5b02dabd16e95cU, 0xbdaa4f6ebe230f90U, 0x3cdc1798bca55468U,
  0xbb449900bd8a8db7U, 0x3d81a47abd363c9cU, 0xbd8efddb3c49bc70U, 0xbd9dda83be25dee9U,
  0xbe2a0d02bb1b82c0U, 0x3d9577503d8979e0U, 0xbd9f27293bf27580U, 0xbd51ab103dbd02aeU,
  0xbd5148043c4bd030U, 0xbe174210bdd07e8aU, 0x3da941bebc80f9e8U, 0xbd0da0fc3cbac758U,
  0x3d56a7083d3db5d0U, 0xbcd4d3603d54267cU, 0xbc5303a0bddafea1U, 0xbdcf28cfbdd980cbU,
  0x3ddc11aabc7e5e80U, 0x3a55dca6bdf7b71eU, 0xbd9ecfe8bdde1f3cU, 0xbdc84a20be0e8de6U,
  0xbd5862afbd389d0dU, 0x3e20a8abbe33197dU, 0x3db54cbabdc82f98U, 0x3e2a7ad1bdc50064U,
  0xbdda12ad3db16d3aU, 0x3dd0e8fcbdab9168U, 0x3d9c4da2be0ff9eeU, 0xbcb12984bdb3a6c0U,
  0xbe0b5301be022c9eU, 0x3b423140be1305e3U, 0xbd2ccd763d077e11U, 0xbdee11f4bd98a061U,
  0x3d574168be032eccU, 0x3e01ebd53df9389dU, 0x3dea2876bd2bfd99U, 0x3c2a3a6cbd617795U,
  0x3d494a30bd31dfa8U, 0xbe158cafbe0c4884U, 0x3e1b862d3e2972a9U, 0xbd43eadc3df828cdU,
  0xbcdad4e4be2ef9f7U, 0x3d8b8c26bd544a7aU, 0x3acaf2923e332117U, 0x3dc1c4113c364adfU,
  0x3cb6c87e3d93aa4fU, 0x3d9f0d453da5855bU, 0x3e05e38abcc29437U, 0x3d57729a3d1a96f7U,
  0x3e0faf2f3d9089b3U, 0xbd9ea122be33be1bU, 0x3e19a0453e19e722U, 0xbe2289db3e25068bU,
  0x3d90b261bb00b0c0U, 0xbe3235073d5c85b1U, 0xbe2a1a4bbd343e1bU, 0x3cc4290fbdaf30f1U,
  0xbd2847403df2efb9U, 0xbdcf8c9fbd1d919dU, 0x3d8bbaa83d841572U, 0xbd38d672be01936cU,
  0x3dedd4adbde257f6U, 0xbc19a77cbe2fefe8U, 0x3e31708dbd9a4856U, 0xbc077840be184b19U,
  0x3dc831ee3d354285U, 0xbd8ac19b3df52c46U, 0xbdd4e7f2be2a8895U, 0x3e165f9f3da1111fU,
  0xbc97882a3df5e79aU, 0xbd3859c63d95f92fU, 0x3c2adb803e0d9613U, 0x3dddf190bd9198f2U,
  0xbddb2667bd89c8ceU, 0x3e0667ed3b087f6aU, 0xbe06cb3c3da81e52U, 0xbdcf8143bd446fcdU,
  0x3c88aca93dd6a29aU, 0xbd63c3cc3d12ca9cU, 0x3e0b2c9abe332a19U, 0x3da5398fbcabe516U,
  0x3e0f8301bd2d0428U, 0xbc9be5b83d890bcaU, 0xbe01e574be331ed6U, 0x3e2631fdbc994408U,
  0x3d234fdcbd65e1aaU, 0x3e0916f7bdca2dcfU, 0x3dc3724ebe0c0900U, 0x3d39daecbe2eefc2U,
  0xbbc67dc0bd9fbf47U, 0x3d9ffbdabe25cfb5U, 0xbd518184bcb10620U, 0xbdaa4f03be10dd71U,
  0xbe1411f3bdf07afeU, 0x3d916b56bde12d11U, 0xbdef891e3da6988eU, 0xbc14a0603c426ce0U,
  0xbd4a9808bdf14748U, 0x3d62cafcbe27d3eeU, 0xbe0945383dedd69aU, 0x3da5174ebdfbdfc9U,
  0x3e23ef1fbde177abU, 0x3db2d206bc9c3a90U, 0x3b997f60bd850b3cU, 0x3e1b07bf3d6dde2cU,
  0x3dcd5fc2bda4fa40U, 0x3d65c4803d666eb0U, 0x3e054f53bdd0f3f1U, 0x3c78af80bd6eabc6U,
  0x3e34c1c7bc006a40U, 0x3e1d9b213dd05dbaU, 0x3ba9cb403e321343U, 0x3e008183bd7b3138U,
  0xbe330a0ebcd7c758U, 0x3de4ef9abe0960d7U, 0xbc21f4b03ce6e8a0U, 0xbdcc8acebce65b60U,
  0xbc44e0403d851ebeU, 0xbe02901e3e232f9fU, 0x3e2aefa3bd9a701bU, 0xbc83f0e83dbf8882U,
  0xbdf8bbb23d195ba0U, 0xbe086ddc3d7a4628U, 0xbd7e98323db71e9eU, 0x3daf83623cf5fd80U,
  0xbe2ce65abe34a356U, 0xbe2457d93dacaa9eU, 0xbd99fd2ebd3018ecU, 0x3dc93ade3df0d3baU,
  0x3cad38403c063c50U, 0xbe20c84abe2db24aU, 0xbe00cc223d5c3664U, 0xbd6848e6be322c03U,
  0x3dfb716ebdebd03aU, 0xbe0d90103ba1b040U, 0xbde73520bdc424abU, 0xbdb1d9f73e211c69U,
  0xbd96971cbe0192ddU, 0xbd85a606bd671302U, 0xbcf10c50bc906908U, 0xbd0f9d7cbda3cd60U,
